{
  "version": "1.0",
  "truncation": null,
  "padding": null,
  "added_tokens": [
    {
      "id": 0,
      "content": "<|bos|>",
      "single_word": false,
      "lstrip": false,
      "rstrip": false,
      "normalized": false,
      "special": true
    },
    {
      "id": 1,
      "content": "<|endoftext|>",
      "single_word": false,
      "lstrip": false,
      "rstrip": false,
      "normalized": false,
      "special": true
    },
    {
      "id": 2,
      "content": "<|pad|>",
      "single_word": false,
      "lstrip": false,
      "rstrip": false,
      "normalized": false,
      "special": true
    },
    {
      "id": 3,
      "content": "<|unk|>",
      "single_word": false,
      "lstrip": false,
      "rstrip": false,
      "normalized": false,
      "special": true
    }
  ],
  "normalizer": null,
  "pre_tokenizer": {
    "type": "ByteLevel",
    "add_prefix_space": false,
    "trim_offsets": true,
    "use_regex": true
  },
  "post_processor": null,
  "decoder": {
    "type": "ByteLevel",
    "add_prefix_space": true,
    "trim_offsets": true,
    "use_regex": true
  },
  "model": {
    "type": "BPE",
    "dropout": null,
    "unk_token": "<|unk|>",
    "continuing_subword_prefix": null,
    "end_of_word_suffix": null,
    "fuse_unk": false,
    "byte_fallback": false,
    "ignore_merges": false,
    "vocab": {
      "<|bos|>": 0,
      "<|endoftext|>": 1,
      "<|pad|>": 2,
      "<|unk|>": 3,
      "!": 4,
      "\"": 5,
      "#": 6,
      "$": 7,
      "%": 8,
      "&": 9,
      "'": 10,
      "(": 11,
      ")": 12,
      "*": 13,
      "+": 14,
      ",": 15,
      "-": 16,
      ".": 17,
      "/": 18,
      "0": 19,
      "1": 20,
      "2": 21,
      "3": 22,
      "4": 23,
      "5": 24,
      "6": 25,
      "7": 26,
      "8": 27,
      "9": 28,
      ":": 29,
      ";": 30,
      "<": 31,
      "=": 32,
      ">": 33,
      "?": 34,
      "@": 35,
      "A": 36,
      "B": 37,
      "C": 38,
      "D": 39,
      "E": 40,
      "F": 41,
      "G": 42,
      "H": 43,
      "I": 44,
      "J": 45,
      "K": 46,
      "L": 47,
      "M": 48,
      "N": 49,
      "O": 50,
      "P": 51,
      "Q": 52,
      "R": 53,
      "S": 54,
      "T": 55,
      "U": 56,
      "V": 57,
      "W": 58,
      "X": 59,
      "Y": 60,
      "Z": 61,
      "[": 62,
      "\\": 63,
      "]": 64,
      "^": 65,
      "_": 66,
      "`": 67,
      "a": 68,
      "b": 69,
      "c": 70,
      "d": 71,
      "e": 72,
      "f": 73,
      "g": 74,
      "h": 75,
      "i": 76,
      "j": 77,
      "k": 78,
      "l": 79,
      "m": 80,
      "n": 81,
      "o": 82,
      "p": 83,
      "q": 84,
      "r": 85,
      "s": 86,
      "t": 87,
      "u": 88,
      "v": 89,
      "w": 90,
      "x": 91,
      "y": 92,
      "z": 93,
      "{": 94,
      "|": 95,
      "}": 96,
      "~": 97,
      "¡": 98,
      "¢": 99,
      "£": 100,
      "¤": 101,
      "¥": 102,
      "¦": 103,
      "§": 104,
      "¨": 105,
      "©": 106,
      "ª": 107,
      "«": 108,
      "¬": 109,
      "®": 110,
      "¯": 111,
      "°": 112,
      "±": 113,
      "²": 114,
      "³": 115,
      "´": 116,
      "µ": 117,
      "¶": 118,
      "·": 119,
      "¸": 120,
      "¹": 121,
      "º": 122,
      "»": 123,
      "¼": 124,
      "½": 125,
      "¾": 126,
      "¿": 127,
      "À": 128,
      "Á": 129,
      "Â": 130,
      "Ã": 131,
      "Ä": 132,
      "Å": 133,
      "Æ": 134,
      "Ç": 135,
      "È": 136,
      "É": 137,
      "Ê": 138,
      "Ë": 139,
      "Ì": 140,
      "Í": 141,
      "Î": 142,
      "Ï": 143,
      "Ð": 144,
      "Ñ": 145,
      "Ò": 146,
      "Ó": 147,
      "Ô": 148,
      "Õ": 149,
      "Ö": 150,
      "×": 151,
      "Ø": 152,
      "Ù": 153,
      "Ú": 154,
      "Û": 155,
      "Ü": 156,
      "Ý": 157,
      "Þ": 158,
      "ß": 159,
      "à": 160,
      "á": 161,
      "â": 162,
      "ã": 163,
      "ä": 164,
      "å": 165,
      "æ": 166,
      "ç": 167,
      "è": 168,
      "é": 169,
      "ê": 170,
      "ë": 171,
      "ì": 172,
      "í": 173,
      "î": 174,
      "ï": 175,
      "ð": 176,
      "ñ": 177,
      "ò": 178,
      "ó": 179,
      "ô": 180,
      "õ": 181,
      "ö": 182,
      "÷": 183,
      "ø": 184,
      "ù": 185,
      "ú": 186,
      "û": 187,
      "ü": 188,
      "ý": 189,
      "þ": 190,
      "ÿ": 191,
      "Ā": 192,
      "ā": 193,
      "Ă": 194,
      "ă": 195,
      "Ą": 196,
      "ą": 197,
      "Ć": 198,
      "ć": 199,
      "Ĉ": 200,
      "ĉ": 201,
      "Ċ": 202,
      "ċ": 203,
      "Č": 204,
      "č": 205,
      "Ď": 206,
      "ď": 207,
      "Đ": 208,
      "đ": 209,
      "Ē": 210,
      "ē": 211,
      "Ĕ": 212,
      "ĕ": 213,
      "Ė": 214,
      "ė": 215,
      "Ę": 216,
      "ę": 217,
      "Ě": 218,
      "ě": 219,
      "Ĝ": 220,
      "ĝ": 221,
      "Ğ": 222,
      "ğ": 223,
      "Ġ": 224,
      "ġ": 225,
      "Ģ": 226,
      "ģ": 227,
      "Ĥ": 228,
      "ĥ": 229,
      "Ħ": 230,
      "ħ": 231,
      "Ĩ": 232,
      "ĩ": 233,
      "Ī": 234,
      "ī": 235,
      "Ĭ": 236,
      "ĭ": 237,
      "Į": 238,
      "į": 239,
      "İ": 240,
      "ı": 241,
      "Ĳ": 242,
      "ĳ": 243,
      "Ĵ": 244,
      "ĵ": 245,
      "Ķ": 246,
      "ķ": 247,
      "ĸ": 248,
      "Ĺ": 249,
      "ĺ": 250,
      "Ļ": 251,
      "ļ": 252,
      "Ľ": 253,
      "ľ": 254,
      "Ŀ": 255,
      "ŀ": 256,
      "Ł": 257,
      "ł": 258,
      "Ń": 259,
      "Ġt": 260,
      "Ġa": 261,
      "he": 262,
      "in": 263,
      "re": 264,
      "Ġthe": 265,
      "on": 266,
      "er": 267,
      "Ġs": 268,
      "at": 269,
      "Ġo": 270,
      "en": 271,
      "Ġc": 272,
      "Ġw": 273,
      "es": 274,
      "is": 275,
      "nd": 276,
      "it": 277,
      "or": 278,
      "Ġp": 279,
      "Ġb": 280,
      "Ġf": 281,
      "al": 282,
      "ed": 283,
      "an": 284,
      "ing": 285,
      "Ġof": 286,
      "ou": 287,
      "Ġin": 288,
      "ar": 289,
      "Ġm": 290,
      "Ġto": 291,
      "Ġand": 292,
      "ic": 293,
      "Ġd": 294,
      "ion": 295,
      "le": 296,
      "ro": 297,
      "as": 298,
      "Ġh": 299,
      "Ġth": 300,
      "ent": 301,
      "il": 302,
      "Ġe": 303,
      "ct": 304,
      "om": 305,
      "Ġre": 306,
      "Ġl": 307,
      "ve": 308,
      "Ġn": 309,
      "st": 310,
      "âĢ": 311,
      "ly": 312,
      "Ġbe": 313,
      "Ġis": 314,
      "Ġg": 315,
      "ĠT": 316,
      "se": 317,
      "ol": 318,
      "et": 319,
      "im": 320,
      "ut": 321,
      "id": 322,
      "ot": 323,
      "ation": 324,
      "ce": 325,
      "ra": 326,
      "ow": 327,
      "Ġfor": 328,
      "ĠI": 329,
      "ur": 330,
      "ĠA": 331,
      "Ġy": 332,
      "ig": 333,
      "ch": 334,
      "ĠS": 335,
      "Ġon": 336,
      "Ġu": 337,
      "Ġthat": 338,
      "ver": 339,
      "Ġst": 340,
      "ĠC": 341,
      "ay": 342,
      "ir": 343,
      "am": 344,
      "ith": 345,
      "el": 346,
      "ul": 347,
      "ad": 348,
      "Ġyou": 349,
      "Ġas": 350,
      "her": 351,
      "Ġwith": 352,
      "Ġpro": 353,
      "Ġit": 354,
      "Ġan": 355,
      "Ġcon": 356,
      "Ġare": 357,
      "Ġwh": 358,
      "if": 359,
      "Ġal": 360,
      "ĠM": 361,
      "ter": 362,
      "od": 363,
      "Ġor": 364,
      "Ġ(": 365,
      "ĠP": 366,
      "ĠThe": 367,
      "Ġ1": 368,
      "ge": 369,
      "Ġhe": 370,
      "âĢĻ": 371,
      "ment": 372,
      "ill": 373,
      "ate": 374,
      "ĠB": 375,
      "th": 376,
      "ers": 377,
      "Ġwe": 378,
      "op": 379,
      "ist": 380,
      "ess": 381,
      "Ġde": 382,
      "Ġha": 383,
      "Ġex": 384,
      "ore": 385,
      "ab": 386,
      "Ġcom": 387,
      "ri": 388,
      "us": 389,
      "est": 390,
      "um": 391,
      "ke": 392,
      "ld": 393,
      "ĠH": 394,
      "ect": 395,
      "ac": 396,
      "ity": 397,
      "qu": 398,
      "ĠW": 399,
      "res": 400,
      "Ġv": 401,
      "Ġsu": 402,
      "Ġat": 403,
      "rom": 404,
      "igh": 405,
      "pp": 406,
      "ive": 407,
      "os": 408,
      "ant": 409,
      "em": 410,
      "Ġby": 411,
      "ies": 412,
      "Ġwas": 413,
      "ĠD": 414,
      "ain": 415,
      "nt": 416,
      "Ġ2": 417,
      "ĠF": 418,
      "ĠR": 419,
      "Ġne": 420,
      "Ġcan": 421,
      "čĊ": 422,
      "ĠE": 423,
      "Ġfrom": 424,
      "Ġse": 425,
      "and": 426,
      "oc": 427,
      "Ġch": 428,
      "Ġr": 429,
      "ort": 430,
      "Ġnot": 431,
      "ud": 432,
      "iv": 433,
      "un": 434,
      "ĠâĢ": 435,
      "Ġhave": 436,
      "art": 437,
      "ĠG": 438,
      "ĠL": 439,
      "ĠN": 440,
      "ure": 441,
      "Ġsh": 442,
      "Ġthis": 443,
      "Ġle": 444,
      "ial": 445,
      "ight": 446,
      "00": 447,
      "ical": 448,
      "Ġsp": 449,
      "all": 450,
      "ould": 451,
      "og": 452,
      "Ġen": 453,
      "Ġab": 454,
      "ĠĠ": 455,
      "ust": 456,
      "ome": 457,
      "red": 458,
      "pt": 459,
      "ich": 460,
      "Ġwor": 461,
      "rou": 462,
      "gh": 463,
      "our": 464,
      "ost": 465,
      "out": 466,
      "The": 467,
      "ions": 468,
      "ard": 469,
      "ine": 470,
      "per": 471,
      "Ġus": 472,
      "Ġpl": 473,
      "ĠO": 474,
      "ag": 475,
      "ther": 476,
      "ell": 477,
      "Ġyour": 478,
      "ide": 479,
      "pl": 480,
      "ated": 481,
      "ast": 482,
      "Ġim": 483,
      "ff": 484,
      "Ġk": 485,
      "Ġint": 486,
      "ak": 487,
      "Ġwill": 488,
      "ĠJ": 489,
      "act": 490,
      "ear": 491,
      "Ġwhe": 492,
      "Ġall": 493,
      "age": 494,
      "Ġtheir": 495,
      "end": 496,
      "âĢĿ": 497,
      "ans": 498,
      "Ġwhich": 499,
      "du": 500,
      "Ġthey": 501,
      "ous": 502,
      "ec": 503,
      "iz": 504,
      "Ġdo": 505,
      "Ġad": 506,
      "ĠU": 507,
      "Ġcomp": 508,
      "ood": 509,
      "ew": 510,
      "ib": 511,
      "Ġhas": 512,
      "ong": 513,
      "Ġme": 514,
      "Ġcont": 515,
      "ult": 516,
      "Ġmore": 517,
      "ap": 518,
      "ĠIn": 519,
      "ip": 520,
      "cc": 521,
      "ru": 522,
      "Ġbut": 523,
      "ok": 524,
      "ere": 525,
      "Ġinc": 526,
      "Ġres": 527,
      "ations": 528,
      "orm": 529,
      "Ġdis": 530,
      "able": 531,
      "ind": 532,
      "'s": 533,
      "are": 534,
      "ĠTh": 535,
      "so": 536,
      "Ġcl": 537,
      "ry": 538,
      "ia": 539,
      "vel": 540,
      "ally": 541,
      "čĊč": 542,
      "ary": 543,
      "Ġman": 544,
      "Ġj": 545,
      "Ġone": 546,
      "ack": 547,
      "ence": 548,
      "ep": 549,
      "Ġso": 550,
      "ĠâĢľ": 551,
      "ake": 552,
      "Ġother": 553,
      "Ġout": 554,
      "ice": 555,
      "ance": 556,
      "reat": 557,
      "ach": 558,
      "Ġwere": 559,
      "Ġper": 560,
      "ose": 561,
      "ime": 562,
      "one": 563,
      "very": 564,
      "Ġhis": 565,
      "ass": 566,
      "ign": 567,
      "ase": 568,
      "ild": 569,
      "au": 570,
      "ame": 571,
      "Ġte": 572,
      "ber": 573,
      "ction": 574,
      "Ġalso": 575,
      "ress": 576,
      "av": 577,
      "ents": 578,
      "ater": 579,
      "Ġup": 580,
      "Ġapp": 581,
      "Ġun": 582,
      "Ġimp": 583,
      "Ġabout": 584,
      "ace": 585,
      "ite": 586,
      "ition": 587,
      "Ġar": 588,
      "ire": 589,
      "ike": 590,
      "ĠSt": 591,
      "ord": 592,
      "ook": 593,
      "Ġwho": 594,
      "Ġpart": 595,
      "Ġev": 596,
      "ue": 597,
      "ens": 598,
      "ks": 599,
      "ĠK": 600,
      "Ġ20": 601,
      "Ġthem": 602,
      "Ġqu": 603,
      "ount": 604,
      "ub": 605,
      "ree": 606,
      "now": 607,
      "ie": 608,
      "Ġ\"": 609,
      "ory": 610,
      "Ġ19": 611,
      "ish": 612,
      "Ġsc": 613,
      "ors": 614,
      "low": 615,
      "Ġpe": 616,
      "ang": 617,
      "ound": 618,
      "ile": 619,
      ").": 620,
      "form": 621,
      "Ġsome": 622,
      "ĠIt": 623,
      "ail": 624,
      "Ġthere": 625,
      "Ġgo": 626,
      "ays": 627,
      "Ġthan": 628,
      "Ġpre": 629,
      "Ġcomm": 630,
      "Ġhad": 631,
      "Ġwhen": 632,
      "Ġbec": 633,
      "Ġ3": 634,
      "Ġtime": 635,
      "Ġsy": 636,
      "ces": 637,
      "Ġstud": 638,
      "Ġbeen": 639,
      "iff": 640,
      "ll": 641,
      "ings": 642,
      "int": 643,
      "ric": 644,
      "Ġyear": 645,
      "Ġsa": 646,
      "Ġag": 647,
      "ough": 648,
      "Ġour": 649,
      "ĠCh": 650,
      "Ġrec": 651,
      "Ġmay": 652,
      "ond": 653,
      "ĠV": 654,
      "te": 655,
      "Ġwork": 656,
      "ople": 657,
      "Ġover": 658,
      "Ġinto": 659,
      "nder": 660,
      "erv": 661,
      "ĠY": 662,
      "Ġlike": 663,
      "ph": 664,
      "Ġro": 665,
      "ates": 666,
      "ove": 667,
      "Ġtra": 668,
      "Ġwould": 669,
      "Ġits": 670,
      "olog": 671,
      "Ġif": 672,
      "ian": 673,
      "Ġhow": 674,
      "Ġany": 675,
      "mer": 676,
      "vers": 677,
      "Ġknow": 678,
      "ĠThis": 679,
      "ons": 680,
      "irst": 681,
      "ual": 682,
      "rough": 683,
      "Ġind": 684,
      "Ġdiff": 685,
      "Ġtw": 686,
      "Ġpeople": 687,
      "rit": 688,
      "Ġuse": 689,
      "Ġthese": 690,
      "ause": 691,
      "Ġra": 692,
      "Ġnew": 693,
      "Ġbet": 694,
      "we": 695,
      "lud": 696,
      "Ġwhat": 697,
      "Ġcons": 698,
      "Ġcol": 699,
      "ren": 700,
      "Ġno": 701,
      "lic": 702,
      "ms": 703,
      "row": 704,
      "Ġdes": 705,
      "ning": 706,
      "tern": 707,
      "Ġacc": 708,
      "Ġbl": 709,
      "Ġoff": 710,
      "Ġ-": 711,
      "Ġneed": 712,
      "ath": 713,
      "les": 714,
      "ments": 715,
      "ious": 716,
      "Ġact": 717,
      "ys": 718,
      "Ġunder": 719,
      "ject": 720,
      "Ġmost": 721,
      "lect": 722,
      "ific": 723,
      "..": 724,
      "ple": 725,
      "ob": 726,
      "Ġam": 727,
      "Ġrep": 728,
      "Ġmy": 729,
      "ities": 730,
      "Ġtr": 731,
      "ov": 732,
      "hed": 733,
      "Ġonly": 734,
      "ark": 735,
      "Ġrel": 736,
      "stem": 737,
      "Ġpo": 738,
      "Ġher": 739,
      "Ġsuch": 740,
      "Ġfe": 741,
      "ink": 742,
      "Ġfirst": 743,
      "Ġhel": 744,
      "fter": 745,
      "ck": 746,
      "ating": 747,
      "cess": 748,
      "Ġinclud": 749,
      "ative": 750,
      "ular": 751,
      "Ġtwo": 752,
      "),": 753,
      "Ġgen": 754,
      "alth": 755,
      "Ġprodu": 756,
      "ced": 757,
      "eth": 758,
      "ne": 759,
      "Ġhelp": 760,
      "old": 761,
      "Ġprov": 762,
      "ient": 763,
      "velop": 764,
      "Ġph": 765,
      "yp": 766,
      "ational": 767,
      "ise": 768,
      "Ġeff": 769,
      "Ġ$": 770,
      "Âł": 771,
      "ble": 772,
      "Ġ201": 773,
      "Ġget": 774,
      "ful": 775,
      "Ġthrough": 776,
      "ft": 777,
      "Ġco": 778,
      "Ġ4": 779,
      "Ġexp": 780,
      "Ġmany": 781,
      "own": 782,
      "Ġused": 783,
      "ics": 784,
      "round": 785,
      "xt": 786,
      "oss": 787,
      "ĠâĢĵ": 788,
      "oth": 789,
      "Ġem": 790,
      "Ġreg": 791,
      "hen": 792,
      "Ġadd": 793,
      "rib": 794,
      "iss": 795,
      "ĠHe": 796,
      "fore": 797,
      "als": 798,
      "ick": 799,
      "ied": 800,
      "Ġspec": 801,
      "Ġdiffere": 802,
      "Ġchild": 803,
      "ĠUn": 804,
      "Ġob": 805,
      "ility": 806,
      "ert": 807,
      "Ġ5": 808,
      "sel": 809,
      "ible": 810,
      "erm": 811,
      "Ġshould": 812,
      "Ġdec": 813,
      "ange": 814,
      "aw": 815,
      "Ġatt": 816,
      "Ġac": 817,
      "Ġwell": 818,
      "Ġass": 819,
      "Ġsystem": 820,
      "uring": 821,
      "ram": 822,
      "ade": 823,
      "ĠĠĠĠ": 824,
      "ased": 825,
      "Ġcould": 826,
      "Ġdevelop": 827,
      "ife": 828,
      "Ġjust": 829,
      "Ġfl": 830,
      "Ġmake": 831,
      "Ġsupp": 832,
      "Ġrem": 833,
      "čĊčĊ": 834,
      "ures": 835,
      "Ġwhere": 836,
      "Ġsaid": 837,
      "ool": 838,
      "ract": 839,
      "In": 840,
      "Ġsub": 841,
      "Ġpr": 842,
      "ower": 843,
      "rop": 844,
      "ng": 845,
      "Ġinv": 846,
      "cy": 847,
      "Ġsur": 848,
      "wn": 849,
      "iet": 850,
      "Ġsm": 851,
      "uch": 852,
      "Ġshe": 853,
      "ution": 854,
      "ts": 855,
      "Ġthen": 856,
      "ween": 857,
      "Ġbu": 858,
      "Ġnum": 859,
      "Ġyears": 860,
      "Ġ200": 861,
      "ting": 862,
      "its": 863,
      "hat": 864,
      "arch": 865,
      "Ġmod": 866,
      "hes": 867,
      "ily": 868,
      "Ġ6": 869,
      "ten": 870,
      "Ġsee": 871,
      "urn": 872,
      "ss": 873,
      "Ġpres": 874,
      "Ġinf": 875,
      "ont": 876,
      "Ġbetween": 877,
      "Ġhigh": 878,
      "oy": 879,
      "gan": 880,
      "Ġvery": 881,
      "ĠWe": 882,
      "Ġtrans": 883,
      "ident": 884,
      "Ġinst": 885,
      "ever": 886,
      "Ġway": 887,
      "Ġpers": 888,
      "Ġafter": 889,
      "Ġform": 890,
      "Ġinter": 891,
      "Ġeven": 892,
      "Ġsim": 893,
      "Ġbecause": 894,
      "ata": 895,
      "ience": 896,
      "Ġevery": 897,
      "Ġwater": 898,
      "ited": 899,
      "iew": 900,
      "Ġdisc": 901,
      "ict": 902,
      "Ġlong": 903,
      "other": 904,
      "ants": 905,
      "Ġhim": 906,
      ".âĢĿ": 907,
      "Ġear": 908,
      "uc": 909,
      "ef": 910,
      "get": 911,
      "Ġexper": 912,
      "Ġdifferent": 913,
      "aking": 914,
      "ollow": 915,
      "Ġke": 916,
      "formation": 917,
      "chool": 918,
      "chn": 919,
      "Ġpol": 920,
      "Ġset": 921,
      "Ġhealth": 922,
      "Ġexam": 923,
      "ness": 924,
      "ines": 925,
      "ually": 926,
      "eg": 927,
      "ins": 928,
      "Ġcar": 929,
      "Ġimport": 930,
      "tle": 931,
      "Ġdet": 932,
      "cept": 933,
      "ology": 934,
      "Ġfound": 935,
      "Th": 936,
      "Ġsec": 937,
      "land": 938,
      "ural": 939,
      "Ġback": 940,
      "Ġlook": 941,
      "Ġworld": 942,
      "Ġthose": 943,
      "Ġcall": 944,
      "meric": 945,
      "ature": 946,
      "Ġeach": 947,
      "the": 948,
      "Ġgener": 949,
      "Ġresp": 950,
      "Ġlar": 951,
      "ues": 952,
      "Ġvar": 953,
      "gy": 954,
      "Ġmuch": 955,
      "Ġgra": 956,
      "Ġed": 957,
      "ists": 958,
      "Ġmed": 959,
      "ivers": 960,
      "ically": 961,
      "Ġgreat": 962,
      "20": 963,
      "Ġdef": 964,
      "ps": 965,
      "Ġref": 966,
      "Ġbeing": 967,
      "Ġgood": 968,
      "led": 969,
      "Ġcount": 970,
      "Ġtyp": 971,
      "ward": 972,
      "Ġloc": 973,
      "Ġsign": 974,
      "Ġent": 975,
      "Ġright": 976,
      "ork": 977,
      "Ġrese": 978,
      "Ġlear": 979,
      "omm": 980,
      "Ġext": 981,
      "Ġprog": 982,
      "Ġeffect": 983,
      "Ġrequ": 984,
      "Ġfind": 985,
      "Ġcent": 986,
      "Ġown": 987,
      "Ġfollow": 988,
      "io": 989,
      "ather": 990,
      "Ġend": 991,
      "Ġresult": 992,
      "imes": 993,
      "Ġdoes": 994,
      "ism": 995,
      "Ġread": 996,
      "ĠPro": 997,
      "ives": 998,
      "Ġincre": 999,
      "ĠAl": 1000,
      "Ġdist": 1001,
      "ved": 1002,
      "Ġfact": 1003,
      "Ġmon": 1004,
      "ĠIf": 1005,
      "Ġmade": 1006,
      "ices": 1007,
      "Ġnow": 1008,
      "Ġsame": 1009,
      "Ġprocess": 1010,
      "Ġpub": 1011,
      "arm": 1012,
      "Ġ7": 1013,
      "ages": 1014,
      "vent": 1015,
      "Ġlife": 1016,
      "ĠAmeric": 1017,
      "ock": 1018,
      "any": 1019,
      "ruct": 1020,
      "Ġagain": 1021,
      "Ġ18": 1022,
      "Ġart": 1023,
      "Ġhum": 1024,
      "ize": 1025,
      "Ġpartic": 1026,
      "Ġbefore": 1027,
      "Ġfun": 1028,
      "Ġcre": 1029,
      "Ġshow": 1030,
      "Ġinformation": 1031,
      "Ġpat": 1032,
      "Ġcur": 1033,
      "Ġmin": 1034,
      "ty": 1035,
      "Ġfam": 1036,
      "cer": 1037,
      "ody": 1038,
      "Ġval": 1039,
      "hip": 1040,
      "Ġdep": 1041,
      "ized": 1042,
      "ted": 1043,
      "Ġins": 1044,
      "ax": 1045,
      "ases": 1046,
      "Ġ\\": 1047,
      "ĠAn": 1048,
      "und": 1049,
      "Ġdata": 1050,
      "ĠFor": 1051,
      "ven": 1052,
      "ix": 1053,
      "Ġaut": 1054,
      "Ġproble": 1055,
      "Ġche": 1056,
      "ds": 1057,
      "ĠAs": 1058,
      "âĢľ": 1059,
      "Ġdid": 1060,
      "Ġserv": 1061,
      "Ġusing": 1062,
      "Ġperson": 1063,
      "Ġsol": 1064,
      "ince": 1065,
      "Ġstr": 1066,
      "'t": 1067,
      "Ġdown": 1068,
      "Ġcor": 1069,
      "Ġca": 1070,
      "Ġ10": 1071,
      "Ġtechn": 1072,
      "Ġcommun": 1073,
      "Ġlead": 1074,
      "day": 1075,
      "ĠThey": 1076,
      "ĠAnd": 1077,
      "âĢĶ": 1078,
      "iel": 1079,
      "Ġcomple": 1080,
      "Ġboth": 1081,
      "cent": 1082,
      "Ġav": 1083,
      "Ġsoc": 1084,
      "ving": 1085,
      "ale": 1086,
      "gg": 1087,
      "Ġtake": 1088,
      "der": 1089,
      "read": 1090,
      "Ġ=": 1091,
      "Ġlit": 1092,
      "ĠĠĠĠĠ": 1093,
      "Ġday": 1094,
      "ex": 1095,
      "ection": 1096,
      "Ġimportant": 1097,
      "nce": 1098,
      "vern": 1099,
      "||": 1100,
      "air": 1101,
      "Ġduring": 1102,
      "Ġsk": 1103,
      "19": 1104,
      ".,": 1105,
      "Ġnumber": 1106,
      "Ġpoint": 1107,
      "ined": 1108,
      "Ġbr": 1109,
      "Ġchildren": 1110,
      "ality": 1111,
      "Ġhand": 1112,
      "ĠYou": 1113,
      "self": 1114,
      "Ġ&": 1115,
      "ner": 1116,
      "iron": 1117,
      "Ġstart": 1118,
      "Ġlevel": 1119,
      "con": 1120,
      "Ġ0": 1121,
      "up": 1122,
      "Ġwhile": 1123,
      "10": 1124,
      "ute": 1125,
      "Ġgl": 1126,
      "inal": 1127,
      "ave": 1128,
      "Ġwant": 1129,
      "Ġgrou": 1130,
      "ier": 1131,
      "Ġequ": 1132,
      "000": 1133,
      "Ġstate": 1134,
      "ars": 1135,
      "ĠSp": 1136,
      "irect": 1137,
      "Ġchar": 1138,
      "Ġsmall": 1139,
      "Ġgrow": 1140,
      "ĠAr": 1141,
      "akes": 1142,
      "ĠHow": 1143,
      "Ġexpl": 1144,
      "Ġposs": 1145,
      "Ġthink": 1146,
      ",âĢĿ": 1147,
      "ĠBut": 1148,
      "stand": 1149,
      "Ġmem": 1150,
      "com": 1151,
      "ered": 1152,
      "Ġ8": 1153,
      "Ġfood": 1154,
      "Ġschool": 1155,
      "ull": 1156,
      "ĠNew": 1157,
      "ĠRe": 1158,
      "ves": 1159,
      "Ġstudents": 1160,
      "ially": 1161,
      "Ġmust": 1162,
      "Ġmat": 1163,
      "Ġtest": 1164,
      "Ġvis": 1165,
      "Ġdi": 1166,
      "Ġthough": 1167,
      "Ġthree": 1168,
      "Ġmain": 1169,
      "Ġstudy": 1170,
      "Ġdesign": 1171,
      "Ġdon": 1172,
      "way": 1173,
      "ected": 1174,
      "Ġgu": 1175,
      "Ġpop": 1176,
      "Ġop": 1177,
      "ished": 1178,
      "Ġprovid": 1179,
      "Ġaround": 1180,
      "Ġconf": 1181,
      "cl": 1182,
      "ouse": 1183,
      "ivid": 1184,
      "ash": 1185,
      "ee": 1186,
      "Ġless": 1187,
      "ters": 1188,
      "iversity": 1189,
      "Ġsupport": 1190,
      "Ġplay": 1191,
      "This": 1192,
      "Ġret": 1193,
      "omen": 1194,
      "ah": 1195,
      "Ġbel": 1196,
      "rol": 1197,
      "iqu": 1198,
      "oh": 1199,
      "Ġser": 1200,
      "ank": 1201,
      "Ġclass": 1202,
      "rent": 1203,
      "ron": 1204,
      "Ġcle": 1205,
      "ral": 1206,
      "Ġprot": 1207,
      "ien": 1208,
      "Ġpower": 1209,
      "Ġsom": 1210,
      "Ġhist": 1211,
      "uss": 1212,
      "Ġ9": 1213,
      "imate": 1214,
      "ĠInd": 1215,
      "line": 1216,
      "ĠSc": 1217,
      "Ġcour": 1218,
      "viron": 1219,
      "Ġoften": 1220,
      "ional": 1221,
      "Ġstill": 1222,
      "Ġhere": 1223,
      "ross": 1224,
      "iness": 1225,
      "alk": 1226,
      "dition": 1227,
      "Ġconst": 1228,
      "Ġquest": 1229,
      "ason": 1230,
      "Ġbo": 1231,
      "Ġplan": 1232,
      "Ġcare": 1233,
      "Ġorgan": 1234,
      "##": 1235,
      "ger": 1236,
      "ĠThere": 1237,
      "ital": 1238,
      "Ġtreat": 1239,
      "Ġest": 1240,
      "Ġocc": 1241,
      "els": 1242,
      "anc": 1243,
      "ared": 1244,
      "Ġcontin": 1245,
      "ulation": 1246,
      ".\"": 1247,
      "ium": 1248,
      "Ġeas": 1249,
      "ired": 1250,
      "Ġplace": 1251,
      "erest": 1252,
      "Ġallow": 1253,
      "Ġmight": 1254,
      "ains": 1255,
      "aj": 1256,
      "Ġexample": 1257,
      "Ġelect": 1258,
      "Ġproduct": 1259,
      "iety": 1260,
      "Ġadv": 1261,
      "bers": 1262,
      "man": 1263,
      "Ġ[": 1264,
      "ury": 1265,
      "Ġwrit": 1266,
      "Ġbest": 1267,
      "orn": 1268,
      "Ġreport": 1269,
      "Ġbook": 1270,
      "Ġactiv": 1271,
      "Ġfew": 1272,
      "Ġris": 1273,
      "ĠWh": 1274,
      "Ġbody": 1275,
      "Ġlarge": 1276,
      "Ġcell": 1277,
      "ĠâĢĺ": 1278,
      "Ġresearch": 1279,
      "Ġide": 1280,
      "Ġappro": 1281,
      "itions": 1282,
      "Ġgovern": 1283,
      "Ġwithout": 1284,
      "Ġredu": 1285,
      "Ġstand": 1286,
      "vironment": 1287,
      "ering": 1288,
      "Ġincluding": 1289,
      "less": 1290,
      "Ġbuild": 1291,
      "Ġaff": 1292,
      "Ġhome": 1293,
      "Ġlast": 1294,
      "eng": 1295,
      "de": 1296,
      "ense": 1297,
      "Ġsay": 1298,
      "Ġsl": 1299,
      "Ġhuman": 1300,
      "to": 1301,
      "Ġ.": 1302,
      "Ġmet": 1303,
      "iven": 1304,
      "ĠIs": 1305,
      "pr": 1306,
      "ergy": 1307,
      "Ġpur": 1308,
      "oun": 1309,
      "čĊčĊč": 1310,
      "Ġunderstand": 1311,
      "ets": 1312,
      "reen": 1313,
      "osed": 1314,
      "Ġbeh": 1315,
      "Ġcommon": 1316,
      "âĢĵ": 1317,
      "me": 1318,
      "acter": 1319,
      "Ġpass": 1320,
      "ertain": 1321,
      "ption": 1322,
      "Ġdise": 1323,
      "It": 1324,
      "Ġcalled": 1325,
      "ization": 1326,
      "Ġmark": 1327,
      "Ġland": 1328,
      "ton": 1329,
      "Ġpublic": 1330,
      "bs": 1331,
      "gen": 1332,
      "Ġanother": 1333,
      "ethod": 1334,
      "ĠSh": 1335,
      "ration": 1336,
      "ining": 1337,
      "esp": 1338,
      "iving": 1339,
      "az": 1340,
      "Ġbus": 1341,
      "tt": 1342,
      "Ġprof": 1343,
      "sc": 1344,
      "Ġdirect": 1345,
      "ways": 1346,
      "inc": 1347,
      "outh": 1348,
      "hers": 1349,
      "ik": 1350,
      "...": 1351,
      "ential": 1352,
      "ĠDe": 1353,
      "Ġtoo": 1354,
      "Ġpresent": 1355,
      "Ġiss": 1356,
      "Ġpract": 1357,
      "Ġfin": 1358,
      "itive": 1359,
      "ries": 1360,
      "Ġpos": 1361,
      "amp": 1362,
      "aterial": 1363,
      "Ġlaw": 1364,
      "Ġinterest": 1365,
      "ug": 1366,
      "čĊčĊĠĠĠĠĠ": 1367,
      "ield": 1368,
      "Ġwithin": 1369,
      "Ġproject": 1370,
      "Ġchange": 1371,
      "Ġsit": 1372,
      "ability": 1373,
      "Ġreal": 1374,
      "ior": 1375,
      "Ġlight": 1376,
      "Ġchang": 1377,
      "Ġrest": 1378,
      "Ġve": 1379,
      "ination": 1380,
      "raph": 1381,
      "oci": 1382,
      "ids": 1383,
      "Ġdem": 1384,
      "Ġknown": 1385,
      "view": 1386,
      "ĠAd": 1387,
      "ividual": 1388,
      "here": 1389,
      "lish": 1390,
      "irc": 1391,
      "iod": 1392,
      "Ġpar": 1393,
      "Ġtem": 1394,
      "Ġeduc": 1395,
      "Ġtop": 1396,
      "Ġsecond": 1397,
      "Ġbetter": 1398,
      "ator": 1399,
      "Ġunt": 1400,
      "ording": 1401,
      "Ġbre": 1402,
      "ek": 1403,
      "oms": 1404,
      "Ġcap": 1405,
      "We": 1406,
      "ify": 1407,
      "Ġold": 1408,
      "Ġbra": 1409,
      "conom": 1410,
      "ĠCon": 1411,
      "Ġenergy": 1412,
      "ified": 1413,
      "eral": 1414,
      "Ġbelie": 1415,
      "Ġthings": 1416,
      "ĠCl": 1417,
      "Ġkeep": 1418,
      "Ġhapp": 1419,
      "Ġproper": 1420,
      "of": 1421,
      "Ġpri": 1422,
      "Ġorder": 1423,
      "ision": 1424,
      "Ġ'": 1425,
      "ĠEng": 1426,
      "eed": 1427,
      "Ġopp": 1428,
      "Ġben": 1429,
      "Ġbas": 1430,
      "Ġarea": 1431,
      "Ġ199": 1432,
      "ĠEx": 1433,
      "Ġimpro": 1434,
      "illion": 1435,
      "Ġavail": 1436,
      "ained": 1437,
      "ead": 1438,
      "ĠThese": 1439,
      "Ġmeas": 1440,
      "ĠPh": 1441,
      "Ġmus": 1442,
      "Ġopen": 1443,
      "ĠQ": 1444,
      "Ġoper": 1445,
      "Ġprogram": 1446,
      "Ġpot": 1447,
      "Ġagainst": 1448,
      "ote": 1449,
      "Ġcome": 1450,
      "Ġlearn": 1451,
      "Ġeng": 1452,
      "Ġlittle": 1453,
      "ently": 1454,
      "__": 1455,
      "Ġanal": 1456,
      "Ġindividual": 1457,
      "Ġrun": 1458,
      "ccess": 1459,
      "Ġident": 1460,
      "12": 1461,
      "Ġmaterial": 1462,
      "ources": 1463,
      "Ġimm": 1464,
      "atic": 1465,
      "arent": 1466,
      "Ġmethod": 1467,
      "ĠUniversity": 1468,
      "ider": 1469,
      "orth": 1470,
      "Ġperform": 1471,
      "Ġele": 1472,
      "Ġpost": 1473,
      "ats": 1474,
      "Ġet": 1475,
      "ware": 1476,
      "Ġsince": 1477,
      "ots": 1478,
      "Ġter": 1479,
      "agn": 1480,
      "Ġphys": 1481,
      "rodu": 1482,
      "Ġdesc": 1483,
      "rist": 1484,
      "Ġleg": 1485,
      "hor": 1486,
      "Ġfeel": 1487,
      "Ġsym": 1488,
      "Ġhead": 1489,
      "omp": 1490,
      "--": 1491,
      "Ġwomen": 1492,
      "Ġlet": 1493,
      "Ġenvironment": 1494,
      "Ġcurrent": 1495,
      "ret": 1496,
      "ĠZ": 1497,
      "Ġdevelopment": 1498,
      "Ġcase": 1499,
      "ians": 1500,
      "ajor": 1501,
      "gin": 1502,
      "Ġel": 1503,
      "Ġlist": 1504,
      "ething": 1505,
      "Ġfree": 1506,
      "ards": 1507,
      "ention": 1508,
      "Ġfamily": 1509,
      "Ġcaus": 1510,
      "angu": 1511,
      "Ġmean": 1512,
      "Ġgroup": 1513,
      "ends": 1514,
      "ames": 1515,
      "icle": 1516,
      "Ġdel": 1517,
      "ĠAmerican": 1518,
      "Ġsever": 1519,
      "Ġinclude": 1520,
      "ern": 1521,
      "Ġput": 1522,
      "erc": 1523,
      "ients": 1524,
      "Ġ15": 1525,
      "ource": 1526,
      "Ġcal": 1527,
      "Ġpossible": 1528,
      "ission": 1529,
      "Ġmeans": 1530,
      "Ġprovide": 1531,
      "Ġcontrol": 1532,
      "Ġnon": 1533,
      "ling": 1534,
      "ived": 1535,
      "Ġsocial": 1536,
      "ised": 1537,
      "ental": 1538,
      "iver": 1539,
      "Ġable": 1540,
      "Ġmove": 1541,
      "Ġlow": 1542,
      "11": 1543,
      ",\"": 1544,
      "Ġdev": 1545,
      "Ġbecome": 1546,
      "sp": 1547,
      "ĠPl": 1548,
      "Ġmen": 1549,
      "be": 1550,
      "ĠâĢĶ": 1551,
      "Ġmonth": 1552,
      "Ġtri": 1553,
      "ĠTo": 1554,
      "Ġaddition": 1555,
      "Ġpain": 1556,
      "Ġ12": 1557,
      "Ġfollowing": 1558,
      "Ġavailable": 1559,
      "Ġfunction": 1560,
      "Ġcr": 1561,
      "Ġwar": 1562,
      "Ġfore": 1563,
      "Ġmar": 1564,
      "atural": 1565,
      "Ġname": 1566,
      "ĠHowever": 1567,
      "ĠWhen": 1568,
      "ĠCol": 1569,
      "Ġcost": 1570,
      "use": 1571,
      "Ġparticular": 1572,
      "âĢ¢": 1573,
      "Ġtre": 1574,
      "Ġant": 1575,
      "rap": 1576,
      "Ġseem": 1577,
      "Ġair": 1578,
      "ills": 1579,
      "Ġgovernment": 1580,
      "Ġline": 1581,
      "Ġnear": 1582,
      "If": 1583,
      "oint": 1584,
      "ĠGod": 1585,
      "Ġfour": 1586,
      "Ġsomething": 1587,
      "ably": 1588,
      "Ġlim": 1589,
      "ane": 1590,
      "Ġfil": 1591,
      "ples": 1592,
      "Ġmil": 1593,
      "Ġproblem": 1594,
      "ope": 1595,
      "par": 1596,
      "Ġseveral": 1597,
      "ÂłÂł": 1598,
      "Ġhard": 1599,
      "Ġcult": 1600,
      "Ġeconom": 1601,
      "What": 1602,
      "ological": 1603,
      "port": 1604,
      "ĠRes": 1605,
      "Ġbusiness": 1606,
      "lished": 1607,
      "Ġprom": 1608,
      "ories": 1609,
      "ĠSe": 1610,
      "Ġgoing": 1611,
      "Ġalways": 1612,
      "Ġrece": 1613,
      "Ġsays": 1614,
      "ode": 1615,
      "Ġorig": 1616,
      "Ġearly": 1617,
      "Ġview": 1618,
      "Ġtimes": 1619,
      "Ġmajor": 1620,
      "Ġturn": 1621,
      "ĠSo": 1622,
      "not": 1623,
      "Ġmult": 1624,
      "Ġblood": 1625,
      "Ġgiven": 1626,
      "oad": 1627,
      "Ġbro": 1628,
      "over": 1629,
      "ina": 1630,
      "Ġbased": 1631,
      "Ġdisease": 1632,
      "ploy": 1633,
      "br": 1634,
      "Ġrisk": 1635,
      "Ġhig": 1636,
      "ole": 1637,
      "lu": 1638,
      "Ġsaf": 1639,
      "Ġdra": 1640,
      "ended": 1641,
      "Ġinvol": 1642,
      "aper": 1643,
      "Ġdri": 1644,
      "Ġgive": 1645,
      "Ġanim": 1646,
      "Ġfac": 1647,
      "ither": 1648,
      "thing": 1649,
      "Ġperiod": 1650,
      "Ġgr": 1651,
      "Ġcertain": 1652,
      "Ġreally": 1653,
      "oid": 1654,
      "Ġaccess": 1655,
      "Ġnever": 1656,
      "ww": 1657,
      "ograph": 1658,
      "Ġcho": 1659,
      "Ġpercent": 1660,
      "ĠCan": 1661,
      "ilar": 1662,
      "work": 1663,
      "Ġhistory": 1664,
      "18": 1665,
      "ĠComm": 1666,
      "Ġothers": 1667,
      "Ġask": 1668,
      "ĠWhat": 1669,
      "ĠAt": 1670,
      "resent": 1671,
      "Ġnext": 1672,
      "Ġbenef": 1673,
      "Ġsw": 1674,
      "atch": 1675,
      "ĠUnited": 1676,
      "hem": 1677,
      "idence": 1678,
      "ances": 1679,
      "Ġsing": 1680,
      "Ġcountry": 1681,
      "Ġtry": 1682,
      "app": 1683,
      "Ġfre": 1684,
      "50": 1685,
      "Ġamong": 1686,
      "Ġdays": 1687,
      "ĠBe": 1688,
      "Ġconn": 1689,
      "arc": 1690,
      "Ġlocal": 1691,
      "ĠTe": 1692,
      "ortun": 1693,
      "urther": 1694,
      "lease": 1695,
      "sy": 1696,
      "Ġfar": 1697,
      "elf": 1698,
      "osp": 1699,
      "ocus": 1700,
      "Ġoccur": 1701,
      "though": 1702,
      "Ġcause": 1703,
      "ray": 1704,
      "Ġuntil": 1705,
      "Ġinvest": 1706,
      "ged": 1707,
      "ĠFr": 1708,
      "sw": 1709,
      "Ġobject": 1710,
      "Ġmaking": 1711,
      "ĠAll": 1712,
      "ird": 1713,
      "Ġteam": 1714,
      "ogn": 1715,
      "ately": 1716,
      "Ġcourse": 1717,
      "Ġcreat": 1718,
      "Ġvol": 1719,
      "Ġintern": 1720,
      "ring": 1721,
      "Ġsuccess": 1722,
      "Ġtype": 1723,
      "ĠOn": 1724,
      "Ġsignific": 1725,
      "ression": 1726,
      "cing": 1727,
      "ĠOr": 1728,
      "aps": 1729,
      "Ġlearning": 1730,
      "St": 1731,
      "Ġmov": 1732,
      "Ġ17": 1733,
      "Ġshort": 1734,
      "ann": 1735,
      "Ġpress": 1736,
      "ured": 1737,
      "une": 1738,
      "ER": 1739,
      "oot": 1740,
      "Ġlangu": 1741,
      "vious": 1742,
      "ides": 1743,
      "Ġlab": 1744,
      "Ġyoung": 1745,
      "por": 1746,
      "Ġstruct": 1747,
      "ours": 1748,
      "ember": 1749,
      "Ġcond": 1750,
      "Ġalong": 1751,
      "urop": 1752,
      "olution": 1753,
      "oney": 1754,
      "Ġexperience": 1755,
      "Ġaway": 1756,
      "ĠChrist": 1757,
      "As": 1758,
      "ox": 1759,
      "Ġwhy": 1760,
      "Ġleft": 1761,
      "ending": 1762,
      "ĠCent": 1763,
      "ĠBl": 1764,
      "Ġcomput": 1765,
      "hy": 1766,
      "ĠUS": 1767,
      "Ġtru": 1768,
      "Ġproblems": 1769,
      "pect": 1770,
      "for": 1771,
      "aken": 1772,
      "Ġareas": 1773,
      "30": 1774,
      "Ġcirc": 1775,
      "ones": 1776,
      "Ġfull": 1777,
      "aster": 1778,
      "Ġindust": 1779,
      "Ġside": 1780,
      "ĠShe": 1781,
      "15": 1782,
      "Ġpast": 1783,
      "Ġheart": 1784,
      "ggest": 1785,
      "ĠStates": 1786,
      "Ġamount": 1787,
      "Ġsure": 1788,
      "Ġkind": 1789,
      "16": 1790,
      "Ġdeterm": 1791,
      "Ġabove": 1792,
      "uture": 1793,
      "Ġcomb": 1794,
      "Ġlater": 1795,
      "Ġspace": 1796,
      "{\\": 1797,
      "Ġey": 1798,
      "Ġ16": 1799,
      "by": 1800,
      "mit": 1801,
      "icult": 1802,
      "min": 1803,
      "Ġclear": 1804,
      "Ġbig": 1805,
      "Ġess": 1806,
      "Ġage": 1807,
      "Ġfocus": 1808,
      "Ġresults": 1809,
      "Ġapplic": 1810,
      "Ġplant": 1811,
      "val": 1812,
      "$$": 1813,
      "Ġtoday": 1814,
      "Ġspecial": 1815,
      "stit": 1816,
      "Ġtoget": 1817,
      "Ġtreatment": 1818,
      "Ġnatural": 1819,
      "Ġtogether": 1820,
      "put": 1821,
      "Ġdue": 1822,
      "Ġfri": 1823,
      "agement": 1824,
      "There": 1825,
      "Ġappear": 1826,
      "Ġflow": 1827,
      "Ġvalue": 1828,
      "Ġopt": 1829,
      "utions": 1830,
      "ohn": 1831,
      "face": 1832,
      "//": 1833,
      "Ġer": 1834,
      "Ġenough": 1835,
      "most": 1836,
      "Ġleast": 1837,
      "ledge": 1838,
      "Ġsuggest": 1839,
      "Ġz": 1840,
      "Ġspecies": 1841,
      "Ġi": 1842,
      "Ġrad": 1843,
      "urope": 1844,
      "Ġ+": 1845,
      "ape": 1846,
      "Ġworking": 1847,
      "Ġmodel": 1848,
      "Ġlot": 1849,
      "Ġcommunity": 1850,
      "cle": 1851,
      "hing": 1852,
      "isc": 1853,
      "ored": 1854,
      "Ġscient": 1855,
      "let": 1856,
      "Ġcomplete": 1857,
      "Ġassoci": 1858,
      "Ġobs": 1859,
      "Ġprevent": 1860,
      "13": 1861,
      "Ġcreate": 1862,
      "alf": 1863,
      "Ġhaving": 1864,
      "Ġbi": 1865,
      "Ġdiscuss": 1866,
      "Ġprop": 1867,
      "Ġweek": 1868,
      "ique": 1869,
      "idd": 1870,
      "Ġneeds": 1871,
      "ler": 1872,
      "Ġwr": 1873,
      "ication": 1874,
      "Ġquestion": 1875,
      "14": 1876,
      "right": 1877,
      "Ġpolit": 1878,
      "Ġrecord": 1879,
      "Ġworks": 1880,
      "Ġwords": 1881,
      "Ġsignificant": 1882,
      "Ġsum": 1883,
      "ively": 1884,
      "Ġx": 1885,
      "ffic": 1886,
      "Ġprofess": 1887,
      "ators": 1888,
      "Ġhouse": 1889,
      "Ġsystems": 1890,
      "For": 1891,
      "How": 1892,
      "Ġtext": 1893,
      "Ġdr": 1894,
      "ĠThat": 1895,
      "augh": 1896,
      "Ġauthor": 1897,
      "orts": 1898,
      "Ġenc": 1899,
      "ĠLe": 1900,
      "Ġstrong": 1901,
      "aces": 1902,
      "âĢ¦": 1903,
      "cul": 1904,
      "ument": 1905,
      "Ġexist": 1906,
      "17": 1907,
      "Ġcharacter": 1908,
      "Ġstep": 1909,
      "Ġhy": 1910,
      "iting": 1911,
      "Ġlikely": 1912,
      "af": 1913,
      "aining": 1914,
      "Ġspecific": 1915,
      "Ġacross": 1916,
      "ateg": 1917,
      "Ġlevels": 1918,
      "ĠNational": 1919,
      "Ġimpact": 1920,
      "aim": 1921,
      "Ġprob": 1922,
      "ready": 1923,
      "Ġdone": 1924,
      "Ġsimilar": 1925,
      "Ġbegin": 1926,
      "ĠWor": 1927,
      "Ġnet": 1928,
      "duct": 1929,
      "ley": 1930,
      "ĠEurope": 1931,
      "asing": 1932,
      "ream": 1933,
      "Ġfuture": 1934,
      "aring": 1935,
      "Ġupon": 1936,
      "ecially": 1937,
      "ott": 1938,
      "ipp": 1939,
      "icro": 1940,
      "Ġmillion": 1941,
      "Ġcame": 1942,
      "Ġnecess": 1943,
      "Ġgeneral": 1944,
      "ery": 1945,
      "Ġdifficult": 1946,
      "atory": 1947,
      "ĠSy": 1948,
      "Ġreason": 1949,
      "Ġdescrib": 1950,
      "aut": 1951,
      "ĠAf": 1952,
      "An": 1953,
      "Ġincrease": 1954,
      "Ġdeath": 1955,
      "Ġrequire": 1956,
      "ilities": 1957,
      "Ġmind": 1958,
      "Ġpay": 1959,
      "Ġ|": 1960,
      "selves": 1961,
      "side": 1962,
      "Ġmakes": 1963,
      "lement": 1964,
      "Ġcells": 1965,
      "ĠMed": 1966,
      "Ġcolle": 1967,
      "ison": 1968,
      "Ġbehav": 1969,
      "Ġtell": 1970,
      "Ġaccount": 1971,
      "Ġkey": 1972,
      "oman": 1973,
      "Ġvir": 1974,
      "Ġlove": 1975,
      "Ġrepresent": 1976,
      "Ġconsum": 1977,
      "Ġsal": 1978,
      "erence": 1979,
      "ned": 1980,
      "Ġmarket": 1981,
      "Ġcrit": 1982,
      "Ġtechnology": 1983,
      "Ġusually": 1984,
      "ges": 1985,
      "ĠMar": 1986,
      "Ġ30": 1987,
      "utes": 1988,
      "ysis": 1989,
      "Ġhowever": 1990,
      "Ġterm": 1991,
      "etic": 1992,
      "Ġmot": 1993,
      "Ġeducation": 1994,
      "ruction": 1995,
      "iation": 1996,
      "Ġvarious": 1997,
      "obal": 1998,
      "Ġconsider": 1999,
      "Ġalready": 2000,
      "Ġwhether": 2001,
      "Ġreturn": 2002,
      "ĠGo": 2003,
      "Ġill": 2004,
      "Ġtool": 2005,
      "Ġ14": 2006,
      "ĠWith": 2007,
      "ma": 2008,
      "ising": 2009,
      "especially": 2010,
      "Ġhigher": 2011,
      "200": 2012,
      "ĠX": 2013,
      "Ġmeet": 2014,
      "Ġtemper": 2015,
      "sh": 2016,
      "You": 2017,
      "atures": 2018,
      "Ġconditions": 2019,
      "ilt": 2020,
      "ency": 2021,
      "Ġrespons": 2022,
      "unt": 2023,
      "bit": 2024,
      "Ġbelow": 2025,
      "Ġparent": 2026,
      "ables": 2027,
      "ourn": 2028,
      "Ġchanges": 2029,
      "omes": 2030,
      "ued": 2031,
      "Ġphot": 2032,
      "://": 2033,
      "Ġlanguage": 2034,
      "Ġrelations": 2035,
      "ĠEn": 2036,
      "itor": 2037,
      "Ġways": 2038,
      "Ġteac": 2039,
      "Ġlive": 2040,
      "ĠJohn": 2041,
      "Ġseen": 2042,
      "rac": 2043,
      "Ġimprove": 2044,
      "Ġdam": 2045,
      "Ġnorm": 2046,
      "Ġclose": 2047,
      "Ġsite": 2048,
      "aves": 2049,
      "Ġonce": 2050,
      "ĠCar": 2051,
      "Ġansw": 2052,
      "Ġann": 2053,
      "Ġevent": 2054,
      "istic": 2055,
      "Ġthought": 2056,
      "Ġfund": 2057,
      "Ġsingle": 2058,
      "ification": 2059,
      "Ġemploy": 2060,
      "Ġproducts": 2061,
      "Ġstory": 2062,
      "ĠOne": 2063,
      "Ġcity": 2064,
      "Ġoffic": 2065,
      "ires": 2066,
      "verage": 2067,
      "omet": 2068,
      "Ġcy": 2069,
      "Ġwind": 2070,
      "Ġsubject": 2071,
      "rug": 2072,
      "Ġestab": 2073,
      "Ġfurther": 2074,
      "Ġespecially": 2075,
      "ustom": 2076,
      "Ġfield": 2077,
      "Ġrange": 2078,
      "yle": 2079,
      "Ġself": 2080,
      "ĠAm": 2081,
      "Ġthing": 2082,
      "chie": 2083,
      "Ġeither": 2084,
      "Ġquality": 2085,
      "ung": 2086,
      "Ġpopulation": 2087,
      "Ġtoward": 2088,
      "Ġhold": 2089,
      "Ġrather": 2090,
      "Ġground": 2091,
      "Ġsens": 2092,
      "rect": 2093,
      "Ġdetail": 2094,
      "Ġcompany": 2095,
      "ĠMay": 2096,
      "apt": 2097,
      "Ġpaper": 2098,
      "Ġfr": 2099,
      "ites": 2100,
      "eb": 2101,
      "mber": 2102,
      "Ġcases": 2103,
      "rel": 2104,
      "ump": 2105,
      "Ġpolic": 2106,
      "Ġtot": 2107,
      "Ġmoney": 2108,
      "Ġchall": 2109,
      "Ġconcer": 2110,
      "AT": 2111,
      "edi": 2112,
      "Ġwhole": 2113,
      "iple": 2114,
      "aching": 2115,
      "Ġmass": 2116,
      "ĠGen": 2117,
      "ibility": 2118,
      "IN": 2119,
      "Ġpred": 2120,
      "Ġfall": 2121,
      "iol": 2122,
      "Ġstat": 2123,
      "fact": 2124,
      "Ġdig": 2125,
      "ĠBrit": 2126,
      "Ġcountries": 2127,
      "Ġprim": 2128,
      "Ġ13": 2129,
      "Ġever": 2130,
      "Ġknowledge": 2131,
      "Ġbrain": 2132,
      "ĠMan": 2133,
      "Ġabs": 2134,
      "uation": 2135,
      "Ġactually": 2136,
      "Ġcentury": 2137,
      "Ġmembers": 2138,
      "rict": 2139,
      "ES": 2140,
      "Ġwin": 2141,
      "Ġonline": 2142,
      "fer": 2143,
      "Ġlower": 2144,
      "Ġtypes": 2145,
      "ule": 2146,
      "ĠTr": 2147,
      "Ġcancer": 2148,
      "Ġcut": 2149,
      "yn": 2150,
      "Ġ198": 2151,
      "Ġvers": 2152,
      "esc": 2153,
      "ĠSome": 2154,
      "Ġservice": 2155,
      "Ġens": 2156,
      "Ġword": 2157,
      "ĠIntern": 2158,
      "ands": 2159,
      "ĠAfric": 2160,
      "When": 2161,
      "pro": 2162,
      "hern": 2163,
      "Ġquestions": 2164,
      "Ġservices": 2165,
      "Ġsize": 2166,
      "Ġtalk": 2167,
      "ĠCal": 2168,
      "ĠEar": 2169,
      "Ġfive": 2170,
      "AR": 2171,
      "iam": 2172,
      "urch": 2173,
      "Ġpatients": 2174,
      "Ġblack": 2175,
      "urity": 2176,
      "Ġjob": 2177,
      "Ġeffects": 2178,
      "Ġyet": 2179,
      "AS": 2180,
      "ĠComp": 2181,
      "Ġdeg": 2182,
      "Ġchem": 2183,
      "ublic": 2184,
      "Ġneg": 2185,
      "Ġrate": 2186,
      "Ġtook": 2187,
      "Ġtaken": 2188,
      "Ġrole": 2189,
      "Ġinit": 2190,
      "ony": 2191,
      "Ġarticle": 2192,
      "Ġsimple": 2193,
      "ips": 2194,
      "Ġquick": 2195,
      "Ġbecame": 2196,
      "To": 2197,
      "ney": 2198,
      "Ġver": 2199,
      "Ġrepl": 2200,
      "ask": 2201,
      "lam": 2202,
      "Ġindic": 2203,
      "Ġbat": 2204,
      "org": 2205,
      "ush": 2206,
      "ĠWar": 2207,
      "Ġaddress": 2208,
      "Ġsent": 2209,
      "Ġpotential": 2210,
      "Ġspe": 2211,
      "Ġcannot": 2212,
      "illed": 2213,
      "ĠWorld": 2214,
      "Ġloss": 2215,
      "Ġsound": 2216,
      "ights": 2217,
      "Ġparticip": 2218,
      "Ġcomes": 2219,
      "overed": 2220,
      "oll": 2221,
      "Ġmor": 2222,
      "ĠRep": 2223,
      "Ġaccording": 2224,
      "ĠNo": 2225,
      "ried": 2226,
      "Ġsoft": 2227,
      "enn": 2228,
      "Ġproduction": 2229,
      "Ġgroups": 2230,
      "Ġbir": 2231,
      "Ġred": 2232,
      "ĠGerm": 2233,
      "acc": 2234,
      "ĠGe": 2235,
      "son": 2236,
      "Ġinflu": 2237,
      "ĠIm": 2238,
      "Ġprotect": 2239,
      "ened": 2240,
      "Ġcontrib": 2241,
      "Ġfail": 2242,
      "ptoms": 2243,
      "Ġwhite": 2244,
      "roll": 2245,
      "ĠAb": 2246,
      "oura": 2247,
      "Ġdom": 2248,
      "Ġbuilding": 2249,
      "ON": 2250,
      "ume": 2251,
      "Ġgot": 2252,
      "eter": 2253,
      "ĠEnglish": 2254,
      "ĠAss": 2255,
      "oon": 2256,
      "Ġlay": 2257,
      "Ġidea": 2258,
      "Ġstudies": 2259,
      "urs": 2260,
      "Ġissues": 2261,
      "wh": 2262,
      "rams": 2263,
      "Ġhalf": 2264,
      "ĠÂ": 2265,
      "Ġopportun": 2266,
      "mb": 2267,
      "Ch": 2268,
      "Ġgrowth": 2269,
      "Ġ11": 2270,
      "Ġachie": 2271,
      "Ġalmost": 2272,
      "Ġphysical": 2273,
      "Ġrele": 2274,
      "Ġrecogn": 2275,
      "Ġplants": 2276,
      "ibr": 2277,
      "Ġobserv": 2278,
      "Ġdoc": 2279,
      "ctor": 2280,
      "Ġoil": 2281,
      "Ġcheck": 2282,
      "ober": 2283,
      "onst": 2284,
      "rew": 2285,
      "bon": 2286,
      "uck": 2287,
      "And": 2288,
      "Ġcollect": 2289,
      "artment": 2290,
      "Ġrequired": 2291,
      "Ġrecomm": 2292,
      "acy": 2293,
      "irm": 2294,
      "OR": 2295,
      "Ġvari": 2296,
      "25": 2297,
      "ply": 2298,
      "Ġentire": 2299,
      "Ġstop": 2300,
      "earch": 2301,
      "Ġ100": 2302,
      "aff": 2303,
      "rad": 2304,
      "Ġactivities": 2305,
      "Ġsource": 2306,
      "epend": 2307,
      "ĠPr": 2308,
      "Ġsuper": 2309,
      "ĠBy": 2310,
      "Ġresearc": 2311,
      "Ġport": 2312,
      "leep": 2313,
      "}}": 2314,
      "Ġintrodu": 2315,
      ".)": 2316,
      "Ġscience": 2317,
      "like": 2318,
      "Ġinteg": 2319,
      "reg": 2320,
      "Ġneeded": 2321,
      "Ġvide": 2322,
      "idered": 2323,
      "Ġarg": 2324,
      "ivity": 2325,
      "ows": 2326,
      "Ġmonths": 2327,
      "reme": 2328,
      "ai": 2329,
      "ging": 2330,
      "Ġcomplex": 2331,
      "ched": 2332,
      "Ġeasy": 2333,
      "Ġfrequ": 2334,
      "ournal": 2335,
      "Ġsurface": 2336,
      "Ġpersonal": 2337,
      "Ġwide": 2338,
      "Ġshall": 2339,
      "Ġbar": 2340,
      "ĠNorth": 2341,
      "ĠDo": 2342,
      "Al": 2343,
      "Wh": 2344,
      "ae": 2345,
      "play": 2346,
      "ĠSouth": 2347,
      "Ġresources": 2348,
      "Ġcreated": 2349,
      "go": 2350,
      "Ġpriv": 2351,
      "Ġattack": 2352,
      "Ġthemselves": 2353,
      "urb": 2354,
      "Ġtradition": 2355,
      "ĠCont": 2356,
      "ude": 2357,
      "aced": 2358,
      "Ġliving": 2359,
      "Ġhtt": 2360,
      "Ġactivity": 2361,
      "my": 2362,
      "Ġnational": 2363,
      "ĠCo": 2364,
      "rate": 2365,
      "ening": 2366,
      "Ġrelationship": 2367,
      "Ġsun": 2368,
      "Ġ,": 2369,
      "Ġcustom": 2370,
      "sych": 2371,
      "Ġconcept": 2372,
      "Ġsat": 2373,
      "Ġdest": 2374,
      "ĠSu": 2375,
      "Ġnight": 2376,
      "Ġdeveloped": 2377,
      "Ġhours": 2378,
      "ĠGu": 2379,
      "ety": 2380,
      "ĠHealth": 2381,
      "ĠAmerica": 2382,
      "Ġflu": 2383,
      "ĠState": 2384,
      "Ġ/": 2385,
      "22": 2386,
      "Ġclaim": 2387,
      "AN": 2388,
      "ĠYork": 2389,
      "Ã©": 2390,
      "But": 2391,
      "Ġgame": 2392,
      "rown": 2393,
      "Ġmedical": 2394,
      "Ġlooking": 2395,
      "Ġconsidered": 2396,
      "):": 2397,
      "Ġstates": 2398,
      "aged": 2399,
      "Ġpractice": 2400,
      "Ġnature": 2401,
      "Ġaffect": 2402,
      "Ġitself": 2403,
      "ales": 2404,
      "Ġpurp": 2405,
      "Ġtrue": 2406,
      "Ġcop": 2407,
      "Ġdoing": 2408,
      "ĠStud": 2409,
      "Ġprovides": 2410,
      "ext": 2411,
      "Ġrelated": 2412,
      "Ġmeasure": 2413,
      "igure": 2414,
      "Ġengine": 2415,
      "Ġpath": 2416,
      "fect": 2417,
      "oor": 2418,
      "Ġface": 2419,
      "Ġtaking": 2420,
      "_{": 2421,
      "ches": 2422,
      "Ġcoll": 2423,
      "Ġ25": 2424,
      "new": 2425,
      "Ġskills": 2426,
      "Ġapproach": 2427,
      "ister": 2428,
      "ample": 2429,
      "Ġpressure": 2430,
      "ival": 2431,
      "Ġbring": 2432,
      "40": 2433,
      "Ġla": 2434,
      "Ġdrug": 2435,
      "Ġcontent": 2436,
      "aging": 2437,
      "Ġnut": 2438,
      "Ġpolitical": 2439,
      "Ġlink": 2440,
      "ivil": 2441,
      "ength": 2442,
      "Ġstra": 2443,
      "Ġsymptoms": 2444,
      "ror": 2445,
      "rated": 2446,
      "Ġfamil": 2447,
      "ises": 2448,
      "Ġterms": 2449,
      "oph": 2450,
      "Ġanalysis": 2451,
      "ript": 2452,
      "Ġwent": 2453,
      "set": 2454,
      "Ġevidence": 2455,
      "ĠDr": 2456,
      "Ġcontact": 2457,
      "elt": 2458,
      "sequ": 2459,
      "Ġmatter": 2460,
      "ores": 2461,
      "Ġcondition": 2462,
      "gest": 2463,
      "Ġmusic": 2464,
      "lying": 2465,
      "empt": 2466,
      "Ġri": 2467,
      "fully": 2468,
      "Ġwebs": 2469,
      "ensive": 2470,
      "ĠApp": 2471,
      "Ġ$$": 2472,
      "60": 2473,
      "Ġdog": 2474,
      "ĠHis": 2475,
      "Ġtotal": 2476,
      "Ġprevious": 2477,
      "plic": 2478,
      "Ġreduce": 2479,
      "olic": 2480,
      "ĠAust": 2481,
      "Ġbreak": 2482,
      "Ġpage": 2483,
      "erve": 2484,
      "Ġ50": 2485,
      "hib": 2486,
      "chan": 2487,
      "Ġposition": 2488,
      "Ġreview": 2489,
      "ctions": 2490,
      "oses": 2491,
      "Ġexperien": 2492,
      "ĠDep": 2493,
      "Ġrelig": 2494,
      "ift": 2495,
      "Ġtar": 2496,
      "Ġbegan": 2497,
      "Ġsense": 2498,
      "Ġcolor": 2499,
      "yl": 2500,
      "Ġnecessary": 2501,
      "Ġfire": 2502,
      "Ġshows": 2503,
      "Ġ:": 2504,
      "Ġtravel": 2505,
      "izing": 2506,
      "Ġexc": 2507,
      "Ġbelieve": 2508,
      "Ġbit": 2509,
      "Ġassociated": 2510,
      "Ġdoesn": 2511,
      "Ġskin": 2512,
      "Ġglobal": 2513,
      "Ġmanagement": 2514,
      "Ġregard": 2515,
      "ules": 2516,
      "Ġability": 2517,
      "Ġparts": 2518,
      "ĠAfter": 2519,
      "Ġsix": 2520,
      "Ġdistrib": 2521,
      "usion": 2522,
      "Ġreact": 2523,
      "99": 2524,
      "ĠAct": 2525,
      "Ġwriting": 2526,
      "Ġaction": 2527,
      "Ġclean": 2528,
      "Ġweight": 2529,
      "based": 2530,
      "ĠFl": 2531,
      "hold": 2532,
      "Ġmaint": 2533,
      "Ġeffic": 2534,
      "Ġeffective": 2535,
      "Ġpoints": 2536,
      "Ġlo": 2537,
      "eds": 2538,
      "Ġrights": 2539,
      "Ġlog": 2540,
      "Ġrespect": 2541,
      "Ġsepar": 2542,
      "Ġindustry": 2543,
      "ĠQu": 2544,
      "Ġstudent": 2545,
      "math": 2546,
      "osis": 2547,
      "Ġtraining": 2548,
      "Ġunderstanding": 2549,
      "ĠSoc": 2550,
      "ene": 2551,
      "Ġdeal": 2552,
      "Ġincreased": 2553,
      "Ġmom": 2554,
      "nces": 2555,
      "astic": 2556,
      "uel": 2557,
      "Ġmaterials": 2558,
      "Ġheav": 2559,
      "Ġlonger": 2560,
      "Ġ--": 2561,
      "Ġste": 2562,
      "ster": 2563,
      "itary": 2564,
      "Ġsuff": 2565,
      "Ġgetting": 2566,
      "inary": 2567,
      "Ġconduct": 2568,
      "Ġ197": 2569,
      "Ġcamp": 2570,
      "Ġcat": 2571,
      "Ġdiet": 2572,
      "Ġreading": 2573,
      "Ġconc": 2574,
      "Ġavoid": 2575,
      "anced": 2576,
      "iction": 2577,
      "Ġpopular": 2578,
      "Ġclimate": 2579,
      "amin": 2580,
      "Ġprovided": 2581,
      "Ġstress": 2582,
      "Ġrecent": 2583,
      "Ġsqu": 2584,
      "iddle": 2585,
      "Ġpublished": 2586,
      "Ġsoil": 2587,
      "Ġce": 2588,
      "Ġseries": 2589,
      "Ġhistor": 2590,
      "Ġsimply": 2591,
      "Ġut": 2592,
      "abor": 2593,
      "čĊĠĠĠĠĠ": 2594,
      "Ġcomputer": 2595,
      "He": 2596,
      "ze": 2597,
      "Ġsex": 2598,
      "Ġmodern": 2599,
      "ences": 2600,
      "Ġetc": 2601,
      "Ġstandard": 2602,
      "icles": 2603,
      "Ġcompet": 2604,
      "Ġgas": 2605,
      "bo": 2606,
      "uted": 2607,
      "Ġdou": 2608,
      "Ġaccept": 2609,
      "Ġfat": 2610,
      "aving": 2611,
      "ns": 2612,
      "Ġcompan": 2613,
      "Ġeconomic": 2614,
      "Ġgreen": 2615,
      "ese": 2616,
      "Ġbur": 2617,
      "\".": 2618,
      "IS": 2619,
      "Ġadult": 2620,
      "Ġmach": 2621,
      "irl": 2622,
      "het": 2623,
      "Ġarch": 2624,
      "Ġmicro": 2625,
      "onse": 2626,
      "Ġge": 2627,
      "'re": 2628,
      "Ġanimals": 2629,
      "lex": 2630,
      "raft": 2631,
      "where": 2632,
      "ners": 2633,
      "Ġnumbers": 2634,
      "Ġpositive": 2635,
      "minist": 2636,
      "Ġago": 2637,
      "hel": 2638,
      "Ġdefin": 2639,
      "Ġstructure": 2640,
      "Ġexerc": 2641,
      "Ġshare": 2642,
      "part": 2643,
      "Ġlat": 2644,
      "Ġthroughout": 2645,
      "anks": 2646,
      "Ġanswer": 2647,
      "lt": 2648,
      "Ġissue": 2649,
      "Ġpict": 2650,
      "itation": 2651,
      "Ġprinc": 2652,
      "Ġquite": 2653,
      "imum": 2654,
      "Ġmess": 2655,
      "Ġfish": 2656,
      "Ġfactors": 2657,
      "Ġfav": 2658,
      "Ġoffer": 2659,
      "rought": 2660,
      "Ġhealthy": 2661,
      "Ġfeed": 2662,
      "joy": 2663,
      "Ġproduce": 2664,
      "iment": 2665,
      "Ġoriginal": 2666,
      "Ġparents": 2667,
      "Ġsubst": 2668,
      "Ġemer": 2669,
      "Ġvisit": 2670,
      "Ġregular": 2671,
      "Ġpattern": 2672,
      "Ġbuilt": 2673,
      "rs": 2674,
      "Ġtax": 2675,
      "Ġpack": 2676,
      "Ġregion": 2677,
      "Ġprote": 2678,
      "Ġstarted": 2679,
      "EN": 2680,
      "Ġresearchers": 2681,
      "Ġshown": 2682,
      "Ġinteract": 2683,
      "vere": 2684,
      "reng": 2685,
      "Ġ24": 2686,
      "apan": 2687,
      "Ġimage": 2688,
      "ĠPar": 2689,
      "umb": 2690,
      "ĠEm": 2691,
      "ĠSchool": 2692,
      "Ġcorrect": 2693,
      "aily": 2694,
      "ĠSec": 2695,
      "osition": 2696,
      "emic": 2697,
      "ĠPe": 2698,
      "Ġaverage": 2699,
      "Ġviol": 2700,
      "Ġdeep": 2701,
      "Ġincludes": 2702,
      "Ġdesigned": 2703,
      "Ġsomeone": 2704,
      "ided": 2705,
      "Ġprec": 2706,
      "Ġsomet": 2707,
      "Ġassess": 2708,
      "hood": 2709,
      "Ġliter": 2710,
      "erous": 2711,
      "ym": 2712,
      "21": 2713,
      "ĠPer": 2714,
      "Ġselect": 2715,
      "verse": 2716,
      "ID": 2717,
      "ief": 2718,
      "Ġwritten": 2719,
      "book": 2720,
      "ying": 2721,
      "Ġincreasing": 2722,
      "ĠMin": 2723,
      "Ġlives": 2724,
      "Ġevents": 2725,
      "So": 2726,
      "____": 2727,
      "ĠMe": 2728,
      "istance": 2729,
      "Ġmedia": 2730,
      "Ġsleep": 2731,
      "frac": 2732,
      "Ġrev": 2733,
      "ufact": 2734,
      "Ġprobably": 2735,
      "Ġslow": 2736,
      "Ġheat": 2737,
      "ĠJan": 2738,
      "Ġtemperature": 2739,
      "atives": 2740,
      "ĠII": 2741,
      "ederal": 2742,
      "ĠPres": 2743,
      "Ġtarget": 2744,
      "NA": 2745,
      "Ġinj": 2746,
      "ropri": 2747,
      "ino": 2748,
      "ĠCanad": 2749,
      "Ġwalk": 2750,
      "ming": 2751,
      "ĠWhile": 2752,
      "Ġwa": 2753,
      "ccording": 2754,
      "Ġmethods": 2755,
      "23": 2756,
      "ached": 2757,
      "Ġsafe": 2758,
      "room": 2759,
      "ĠEarth": 2760,
      "Ġoutside": 2761,
      "arr": 2762,
      "Ġmeaning": 2763,
      "Ġindividuals": 2764,
      "ender": 2765,
      "Ġadded": 2766,
      "ĠMy": 2767,
      "Ġseason": 2768,
      "ĠTra": 2769,
      "ops": 2770,
      "ulations": 2771,
      "ĠWill": 2772,
      "uth": 2773,
      "Ġforce": 2774,
      "Ġfarm": 2775,
      "Ġcoun": 2776,
      "Ġroom": 2777,
      "ems": 2778,
      "On": 2779,
      "light": 2780,
      "Ġcommit": 2781,
      "uge": 2782,
      "ĠEd": 2783,
      "ĠHist": 2784,
      "Ġperformance": 2785,
      "cell": 2786,
      "istics": 2787,
      "elling": 2788,
      "Ġep": 2789,
      "ĠJew": 2790,
      "Ġdeb": 2791,
      "Ġtold": 2792,
      "Ġprograms": 2793,
      "Ġimplement": 2794,
      "Ġtakes": 2795,
      "Ġnetwork": 2796,
      "Ġrelative": 2797,
      "Ġsociety": 2798,
      "Ġcontain": 2799,
      "Ġsometimes": 2800,
      "ension": 2801,
      "osing": 2802,
      "back": 2803,
      "order": 2804,
      "ev": 2805,
      "Ġvariety": 2806,
      "estern": 2807,
      "aries": 2808,
      "Ġemb": 2809,
      "Ġchemical": 2810,
      "Ġled": 2811,
      "Ġmedic": 2812,
      "ections": 2813,
      "Ġnormal": 2814,
      "Ġthird": 2815,
      "Ġtherap": 2816,
      "Ġearth": 2817,
      "amed": 2818,
      "Ġmother": 2819,
      "gar": 2820,
      "Ġvideo": 2821,
      "Ġmechan": 2822,
      "Ġlate": 2823,
      "oved": 2824,
      "Ġsurv": 2825,
      "arily": 2826,
      "Ġinstead": 2827,
      "pe": 2828,
      "ĠMore": 2829,
      "ĠKing": 2830,
      "Ġvalues": 2831,
      "Ġbad": 2832,
      "Ġuses": 2833,
      "Ġ#": 2834,
      "Ġdraw": 2835,
      "Ġbenefits": 2836,
      "ĠInt": 2837,
      "Ġinvolved": 2838,
      "imately": 2839,
      "Ġcontinue": 2840,
      "cient": 2841,
      "Ġgreater": 2842,
      "Ġsil": 2843,
      "haps": 2844,
      "ĠPart": 2845,
      "Ġbal": 2846,
      "Ġlack": 2847,
      "Ġattempt": 2848,
      "Ġappl": 2849,
      "Ġbehavior": 2850,
      "Ġsoon": 2851,
      "ari": 2852,
      "idge": 2853,
      "asc": 2854,
      "24": 2855,
      "ĠCount": 2856,
      "ĠBritish": 2857,
      "Ġcompon": 2858,
      "Ġschools": 2859,
      "Ġenjoy": 2860,
      "Ġfront": 2861,
      "Ġresponse": 2862,
      "Ġcou": 2863,
      "Ġfinanc": 2864,
      "}{": 2865,
      "ĠJapan": 2866,
      "Ġprint": 2867,
      "cil": 2868,
      "ĠEl": 2869,
      "Ġstreng": 2870,
      "Ġhot": 2871,
      "Ġreported": 2872,
      "Ġspeed": 2873,
      "load": 2874,
      "ronic": 2875,
      "Ġspeak": 2876,
      "ties": 2877,
      "Ġpoor": 2878,
      "Ġdidn": 2879,
      "dom": 2880,
      "irit": 2881,
      "Ġseems": 2882,
      "ĠYour": 2883,
      "inks": 2884,
      "Ġsolution": 2885,
      "Ġexpress": 2886,
      "vey": 2887,
      "ĠNot": 2888,
      "ades": 2889,
      "eration": 2890,
      "aches": 2891,
      "Ġtheory": 2892,
      "ĠPre": 2893,
      "Ġstay": 2894,
      "Ġsearch": 2895,
      "rast": 2896,
      "Ġeat": 2897,
      "bor": 2898,
      "Ġbeaut": 2899,
      "Ġcover": 2900,
      "Ġensure": 2901,
      "Ġwild": 2902,
      "rench": 2903,
      "Ġcaused": 2904,
      "Ġattention": 2905,
      "mon": 2906,
      "Ġwebsite": 2907,
      "Ġminutes": 2908,
      "ĠAug": 2909,
      "Ġbehind": 2910,
      "Ġcode": 2911,
      "Ġfriends": 2912,
      "Ġstri": 2913,
      "bl": 2914,
      "Ġnothing": 2915,
      "Ġelse": 2916,
      "Ġanything": 2917,
      "Ġconsist": 2918,
      "Ġspread": 2919,
      "IC": 2920,
      "Ġexpect": 2921,
      "Ġ2012": 2922,
      "Ġorigin": 2923,
      "Ġcompanies": 2924,
      "ille": 2925,
      "Ġcross": 2926,
      "Ġdiv": 2927,
      "Ġfa": 2928,
      "Ġserious": 2929,
      "Ġang": 2930,
      "ĠResearch": 2931,
      "Ġwall": 2932,
      "ecause": 2933,
      "erson": 2934,
      "Ġeasily": 2935,
      "Ġexact": 2936,
      "Ġfoot": 2937,
      "Ġfeatures": 2938,
      "Ġprep": 2939,
      "Ġhost": 2940,
      "ground": 2941,
      "Ġincluded": 2942,
      "AL": 2943,
      "na": 2944,
      "Ġheld": 2945,
      "oes": 2946,
      "Ġencoura": 2947,
      "ceed": 2948,
      "Ġobt": 2949,
      "Ġinside": 2950,
      "Ġful": 2951,
      "ana": 2952,
      "Ġdifference": 2953,
      "oly": 2954,
      "Ġfeet": 2955,
      "ĠJu": 2956,
      "oles": 2957,
      "Ġwood": 2958,
      "Ġhor": 2959,
      "uff": 2960,
      "Ġsaw": 2961,
      "Ġâ": 2962,
      "Ġhelps": 2963,
      "Ġbasic": 2964,
      "Ġjo": 2965,
      "Ġaud": 2966,
      "Ġrefer": 2967,
      "Ġunique": 2968,
      "Ġ40": 2969,
      "Ġthreat": 2970,
      "Ġextreme": 2971,
      "Ġmiss": 2972,
      "Ġcalcul": 2973,
      "rim": 2974,
      "isions": 2975,
      "Ġfit": 2976,
      "Ġroad": 2977,
      "Ġnews": 2978,
      "Ġmagn": 2979,
      "Ġthus": 2980,
      "ED": 2981,
      "Ġindepend": 2982,
      "Ġmanufact": 2983,
      "Ġideas": 2984,
      "ĠInstit": 2985,
      "Ġeverything": 2986,
      "lands": 2987,
      "Ġtown": 2988,
      "aid": 2989,
      "come": 2990,
      "Ġtherefore": 2991,
      "Ġculture": 2992,
      "Ġchalleng": 2993,
      "eal": 2994,
      "ĠAg": 2995,
      "Ġfile": 2996,
      "Ġinvestig": 2997,
      "Ġwon": 2998,
      "Ġwrite": 2999,
      "ĠIndia": 3000,
      "Ġmovement": 3001,
      "Ġfru": 3002,
      "itude": 3003,
      "Ġfem": 3004,
      "Ġenvironmental": 3005,
      "Ġtable": 3006,
      "Ġparticularly": 3007,
      "ĠCom": 3008,
      "ĠGl": 3009,
      "Ġbooks": 3010,
      "itch": 3011,
      "dd": 3012,
      "Ġmultiple": 3013,
      "Ġestim": 3014,
      "duc": 3015,
      "Ġasked": 3016,
      "ricult": 3017,
      "ĠThen": 3018,
      "Ġhope": 3019,
      "Ġlength": 3020,
      "Ġallows": 3021,
      "ĠOct": 3022,
      "Ġquant": 3023,
      "eks": 3024,
      "IT": 3025,
      "Ġcard": 3026,
      "Ġpolicy": 3027,
      "uary": 3028,
      "}$": 3029,
      "Ġidentify": 3030,
      "Ġkids": 3031,
      "ĠSm": 3032,
      "Ġdiagn": 3033,
      "AC": 3034,
      "Ġcred": 3035,
      ");": 3036,
      "80": 3037,
      "ounds": 3038,
      "ucle": 3039,
      "Ġhimself": 3040,
      "ĠAustral": 3041,
      "ĠCenter": 3042,
      "Ġcarbon": 3043,
      "Ġ2010": 3044,
      "Ġperfect": 3045,
      "Ġquickly": 3046,
      "Ġcauses": 3047,
      "rial": 3048,
      "asons": 3049,
      "Ġhands": 3050,
      "ĠApr": 3051,
      "Ġextra": 3052,
      "ius": 3053,
      "head": 3054,
      "Ġdemonst": 3055,
      "reet": 3056,
      "Ġbase": 3057,
      "wise": 3058,
      "Ġdocument": 3059,
      "Ġgenerally": 3060,
      "Ġproduced": 3061,
      "Ġdamage": 3062,
      "^{": 3063,
      "ĠScience": 3064,
      "Ġgrowing": 3065,
      "Ġ$\\": 3066,
      "ellow": 3067,
      "Ġadditional": 3068,
      "Ġlif": 3069,
      "ha": 3070,
      "ĠUs": 3071,
      "ests": 3072,
      "Ġfram": 3073,
      "co": 3074,
      "Ġforms": 3075,
      "Ġaware": 3076,
      "Ġleaders": 3077,
      "Ġimmedi": 3078,
      "fort": 3079,
      "Ġinn": 3080,
      "ĠTw": 3081,
      "ington": 3082,
      "abet": 3083,
      "Ġdirectly": 3084,
      "Ġcapt": 3085,
      "Ġsafety": 3086,
      "Ġsecurity": 3087,
      "Ġox": 3088,
      "Ġeyes": 3089,
      "Ġinternational": 3090,
      "Ġsources": 3091,
      "unch": 3092,
      "Ġharm": 3093,
      "Ġsold": 3094,
      "ham": 3095,
      "Ġir": 3096,
      "Ġproperty": 3097,
      "ĠRec": 3098,
      "lection": 3099,
      "Ġfast": 3100,
      "Ġsoftware": 3101,
      "Ġessential": 3102,
      "ura": 3103,
      "ĠCons": 3104,
      "Ġprior": 3105,
      "cies": 3106,
      "Ġeval": 3107,
      "ĠReg": 3108,
      "Ġagree": 3109,
      "ĠCO": 3110,
      "Ġsection": 3111,
      "ography": 3112,
      "ĠMc": 3113,
      "ĠBar": 3114,
      "Ġwhose": 3115,
      "Ġmoment": 3116,
      "Ġearl": 3117,
      "Ġthous": 3118,
      "ĠSch": 3119,
      "Ġofficial": 3120,
      "Ġ2011": 3121,
      "Ġ21": 3122,
      "Ġinstall": 3123,
      "osure": 3124,
      "undred": 3125,
      "Ġbab": 3126,
      "ĠHere": 3127,
      "Ġpsych": 3128,
      "ĠArt": 3129,
      "ĠCor": 3130,
      "Ġord": 3131,
      "www": 3132,
      "ĠChina": 3133,
      "time": 3134,
      "One": 3135,
      "Ġsust": 3136,
      "Ġtools": 3137,
      "Ġwond": 3138,
      "ĠServ": 3139,
      "Ġwarm": 3140,
      "Ġdaily": 3141,
      "Ġemot": 3142,
      "Ġlost": 3143,
      "ĠWest": 3144,
      "Ġappropri": 3145,
      "Ġtrying": 3146,
      "Ġfather": 3147,
      "Ġ2013": 3148,
      "ĠNe": 3149,
      "vert": 3150,
      "Ġelectric": 3151,
      "Ġhyd": 3152,
      "ixed": 3153,
      "Ġaltern": 3154,
      "Ġcit": 3155,
      "ĠAc": 3156,
      "att": 3157,
      "oring": 3158,
      "Ġpoll": 3159,
      "imal": 3160,
      "ĠMarch": 3161,
      "Ġexcept": 3162,
      "year": 3163,
      "Ġapplication": 3164,
      "ancy": 3165,
      "atur": 3166,
      "ervation": 3167,
      "Ġdetermine": 3168,
      "Ġpatient": 3169,
      "ype": 3170,
      "Â·": 3171,
      "Ġlarger": 3172,
      "Ġjud": 3173,
      "Ġreve": 3174,
      "Ġdeveloping": 3175,
      "Ġdark": 3176,
      "Ġreceived": 3177,
      "Ġelements": 3178,
      "ription": 3179,
      "ĠMany": 3180,
      "ĠDav": 3181,
      "vant": 3182,
      "Ġsus": 3183,
      "Ex": 3184,
      "Ġfinal": 3185,
      "ding": 3186,
      "Ġhighly": 3187,
      "lim": 3188,
      "Ġconcent": 3189,
      "Ġreflect": 3190,
      "Ġones": 3191,
      "Ġtowards": 3192,
      "Ġtraditional": 3193,
      "Ġanaly": 3194,
      "27": 3195,
      "oe": 3196,
      "used": 3197,
      "iforn": 3198,
      "Ġprogress": 3199,
      "Ġrout": 3200,
      "iers": 3201,
      "oke": 3202,
      "Ġweeks": 3203,
      "Ġbrought": 3204,
      "yond": 3205,
      "overy": 3206,
      "ĠChar": 3207,
      "med": 3208,
      "Ġachieve": 3209,
      "Ġ23": 3210,
      "equ": 3211,
      "iece": 3212,
      "Ġgives": 3213,
      "ĠHer": 3214,
      "Ġcompared": 3215,
      "Ġbacter": 3216,
      "Ġtree": 3217,
      "ĠJune": 3218,
      "rote": 3219,
      "Ġblock": 3220,
      "Ġnation": 3221,
      "Ġforest": 3222,
      "Ġbroad": 3223,
      "Ġeye": 3224,
      "Ġinstit": 3225,
      "rm": 3226,
      "Ġder": 3227,
      "ĠBr": 3228,
      "Ġweb": 3229,
      "oud": 3230,
      "Ġdang": 3231,
      "Ġuseful": 3232,
      "Ġtit": 3233,
      "Ġfinancial": 3234,
      "hest": 3235,
      "Ġhon": 3236,
      "aly": 3237,
      "26": 3238,
      "?âĢĿ": 3239,
      "ula": 3240,
      "Ġsea": 3241,
      "Ġwoman": 3242,
      "Ġhttp": 3243,
      "ĠJes": 3244,
      "Ġdecision": 3245,
      "ĠHar": 3246,
      "Ġgirl": 3247,
      "Ġanimal": 3248,
      "ĠDepartment": 3249,
      "Ġprice": 3250,
      "ĠOur": 3251,
      "Ġnegative": 3252,
      "resh": 3253,
      "erg": 3254,
      "Ġleading": 3255,
      "Ġlines": 3256,
      "Ġmention": 3257,
      "ĠMost": 3258,
      "Ġgoal": 3259,
      "hemat": 3260,
      "Ġdry": 3261,
      "Ġautom": 3262,
      "Ġbeginning": 3263,
      "Ġ...": 3264,
      "Ġprivate": 3265,
      "Ġpurch": 3266,
      "Ġadj": 3267,
      "Ġproced": 3268,
      "Ġscientists": 3269,
      "iles": 3270,
      "ama": 3271,
      "Ġsituation": 3272,
      "US": 3273,
      "iency": 3274,
      "ifornia": 3275,
      "Ġfight": 3276,
      "Ġthinking": 3277,
      "ĠNow": 3278,
      "pper": 3279,
      "Ġsn": 3280,
      "fficient": 3281,
      "vention": 3282,
      "rael": 3283,
      "Ġcoming": 3284,
      "Ġpurpose": 3285,
      "Ġprimary": 3286,
      "Ġalthough": 3287,
      "Ġmount": 3288,
      "ĠCity": 3289,
      "Ġmilitary": 3290,
      "Ġisn": 3291,
      "uous": 3292,
      "uk": 3293,
      "Ġfoods": 3294,
      "ĠSept": 3295,
      "Ġbirth": 3296,
      "Ġmax": 3297,
      "Ġdrink": 3298,
      "Ġcivil": 3299,
      "Ġarri": 3300,
      "Ġteachers": 3301,
      "Ġdead": 3302,
      "Ġur": 3303,
      "ĠFirst": 3304,
      "At": 3305,
      "iful": 3306,
      "rie": 3307,
      "Ġlimited": 3308,
      "Ġaspect": 3309,
      "Ġactive": 3310,
      "olar": 3311,
      "ĠBra": 3312,
      "ĠFrench": 3313,
      "ĠGra": 3314,
      "ĠEuropean": 3315,
      "ĠSw": 3316,
      "Ġeth": 3317,
      "Ġfriend": 3318,
      "Ġeveryone": 3319,
      "Ġdecre": 3320,
      "ields": 3321,
      "28": 3322,
      "Ġyourself": 3323,
      "Ġhundred": 3324,
      "Ġtend": 3325,
      "45": 3326,
      "su": 3327,
      "Ġunc": 3328,
      "With": 3329,
      "term": 3330,
      "Ġversion": 3331,
      "Ġson": 3332,
      "Ġchoose": 3333,
      "Ġleave": 3334,
      "Ġestablished": 3335,
      "Ġast": 3336,
      "Ġ2009": 3337,
      "Ġdecl": 3338,
      "Ġdate": 3339,
      "ĠApril": 3340,
      "oming": 3341,
      "sec": 3342,
      "ĠInternational": 3343,
      "ĠIndian": 3344,
      "Ġcommand": 3345,
      "29": 3346,
      "Ġvia": 3347,
      "Ġcommunities": 3348,
      "Ġcontains": 3349,
      "off": 3350,
      "\",": 3351,
      "airs": 3352,
      "Ġadminist": 3353,
      "ĠMus": 3354,
      "Ġimages": 3355,
      "'ve": 3356,
      "Ġsequ": 3357,
      "Ġfamilies": 3358,
      "ĠFrom": 3359,
      "Ġgard": 3360,
      "Ġmental": 3361,
      "ĠEduc": 3362,
      "Ġconstant": 3363,
      "ĠJuly": 3364,
      "ĠMon": 3365,
      "Ġexpected": 3366,
      "lation": 3367,
      "mission": 3368,
      "Ġcool": 3369,
      "Ġstru": 3370,
      "Ġveget": 3371,
      "Ġcam": 3372,
      "Ġdemand": 3373,
      "mar": 3374,
      "'m": 3375,
      "ibrary": 3376,
      "Ġ{": 3377,
      "Ġfra": 3378,
      "Ġprofessional": 3379,
      "ĠFeb": 3380,
      "ĠInc": 3381,
      "aul": 3382,
      "Ġcosts": 3383,
      "Ġ*": 3384,
      "Ġaim": 3385,
      "ils": 3386,
      "Ġsupply": 3387,
      "gency": 3388,
      "Ġmis": 3389,
      "Ġcarry": 3390,
      "Ġreach": 3391,
      "ĠRuss": 3392,
      "ĠCalifornia": 3393,
      "rec": 3394,
      "useum": 3395,
      "RE": 3396,
      "Ġinterp": 3397,
      "Ġcritical": 3398,
      "Ġcentral": 3399,
      "Ġveh": 3400,
      "iques": 3401,
      "HE": 3402,
      "ĠPresident": 3403,
      "ĠAugust": 3404,
      "Ġcenter": 3405,
      "Ġswe": 3406,
      "Ġtransport": 3407,
      "ulate": 3408,
      "Ġuser": 3409,
      "Ġrecently": 3410,
      "Ġprojects": 3411,
      "Ġvacc": 3412,
      "ero": 3413,
      "illing": 3414,
      "ĠOther": 3415,
      "Ġplaces": 3416,
      "Ġtrees": 3417,
      "Ġnearly": 3418,
      "Ġsummer": 3419,
      "ĠKe": 3420,
      "Ġreceive": 3421,
      "izes": 3422,
      "Ġmodels": 3423,
      "istry": 3424,
      "Ġec": 3425,
      "Ġ196": 3426,
      "ought": 3427,
      "Ġsites": 3428,
      "Ġdisp": 3429,
      "'ll": 3430,
      "35": 3431,
      "Ġhar": 3432,
      "ĠPark": 3433,
      "Ġbott": 3434,
      "ĠDay": 3435,
      "Ġ<": 3436,
      "ĠInstitute": 3437,
      "âĢĿ.": 3438,
      "Ġwatch": 3439,
      "pid": 3440,
      "Ġinsp": 3441,
      "Ġgave": 3442,
      "uments": 3443,
      "Ġvirus": 3444,
      "Ġcapac": 3445,
      "Ġlocated": 3446,
      "Ġpan": 3447,
      "oice": 3448,
      "ondon": 3449,
      "Ġfunctions": 3450,
      "Ġdescribed": 3451,
      "Ġden": 3452,
      "Ġrequires": 3453,
      "Ġusers": 3454,
      "Ġscreen": 3455,
      "Ġemail": 3456,
      "aught": 3457,
      "Ġvict": 3458,
      "Ġgoes": 3459,
      "iber": 3460,
      "ipment": 3461,
      "Ġlabor": 3462,
      "čĊčĊčĊĠĠĠĠĠ": 3463,
      "ĠBo": 3464,
      "Ġopportunity": 3465,
      "Pro": 3466,
      "Ġimag": 3467,
      "}\\": 3468,
      "ĠOf": 3469,
      "Ġremain": 3470,
      "Ġforward": 3471,
      "inct": 3472,
      "ky": 3473,
      "Ġball": 3474,
      "Ġstrateg": 3475,
      "Ġpick": 3476,
      "Ġclin": 3477,
      "Ġcapital": 3478,
      "Ġcurrently": 3479,
      "Ġpoly": 3480,
      "Ġtou": 3481,
      "ĠSim": 3482,
      "see": 3483,
      "Ġexercise": 3484,
      "Ġapplications": 3485,
      "Ġ2008": 3486,
      "wor": 3487,
      "###": 3488,
      "Ġrates": 3489,
      "Ġmemory": 3490,
      "Ġformer": 3491,
      "Ġdoctor": 3492,
      "Ġtiss": 3493,
      "Ġscientific": 3494,
      "ĠIsrael": 3495,
      "70": 3496,
      "know": 3497,
      "apter": 3498,
      "ulated": 3499,
      "hens": 3500,
      "Ġmid": 3501,
      "Ġadvant": 3502,
      "Ġmember": 3503,
      "Ġinteresting": 3504,
      "cember": 3505,
      "Ġbasis": 3506,
      "Ġtrack": 3507,
      "ĠVal": 3508,
      "Ġult": 3509,
      "Ġgraph": 3510,
      "iot": 3511,
      "ĠAnt": 3512,
      "izations": 3513,
      "Ġbox": 3514,
      "Ġdisplay": 3515,
      "Ġworth": 3516,
      "Ġten": 3517,
      "Ġsymb": 3518,
      "ilos": 3519,
      "ipl": 3520,
      "90": 3521,
      "Ġcele": 3522,
      "33": 3523,
      "ologies": 3524,
      "Ġacid": 3525,
      "king": 3526,
      "ĠMat": 3527,
      "Ġlegal": 3528,
      "Ġlargest": 3529,
      "ĠProg": 3530,
      "iar": 3531,
      "Ġcourt": 3532,
      "Ġpen": 3533,
      "Ġfair": 3534,
      "Ġexec": 3535,
      "inate": 3536,
      "Ġking": 3537,
      "----": 3538,
      "Ġpret": 3539,
      "ĠAssoci": 3540,
      "rig": 3541,
      "Ġplease": 3542,
      "uman": 3543,
      "ran": 3544,
      "ĠSystem": 3545,
      "ford": 3546,
      "resp": 3547,
      "Ġfear": 3548,
      "ĠWash": 3549,
      "Ġbecomes": 3550,
      "Ġdevice": 3551,
      "Ġdevices": 3552,
      "ĠJesus": 3553,
      "itable": 3554,
      "Ġwrong": 3555,
      "ĠPol": 3556,
      "irection": 3557,
      "ĠLet": 3558,
      "ogle": 3559,
      "Ġrunning": 3560,
      "Ġteaching": 3561,
      "AM": 3562,
      "cean": 3563,
      "lin": 3564,
      "issions": 3565,
      "ovember": 3566,
      "Ġcook": 3567,
      "Ġrespond": 3568,
      "rogen": 3569,
      "Ġwrote": 3570,
      "ĠMod": 3571,
      "ector": 3572,
      "idents": 3573,
      "By": 3574,
      "Ġsolar": 3575,
      "Ġappropriate": 3576,
      "Ġstage": 3577,
      "Ġund": 3578,
      "Ġremember": 3579,
      "omb": 3580,
      "Ġalone": 3581,
      "iter": 3582,
      "isms": 3583,
      "Ġbuy": 3584,
      "Ġapprox": 3585,
      "aint": 3586,
      "Ġcompletely": 3587,
      "outhern": 3588,
      "Ġoffers": 3589,
      "vest": 3590,
      "amb": 3591,
      "entially": 3592,
      "Ġfollowed": 3593,
      "ĠAlthough": 3594,
      "Ġdigital": 3595,
      "Ġfavor": 3596,
      "enge": 3597,
      "Ġhumans": 3598,
      "Ġdepend": 3599,
      "Ġvit": 3600,
      "Ġworkers": 3601,
      "Ġrecommend": 3602,
      "rest": 3603,
      "Ġnucle": 3604,
      "ĠGerman": 3605,
      "Ġcreating": 3606,
      "Ġ22": 3607,
      "ĠJust": 3608,
      "uries": 3609,
      "Ġgradu": 3610,
      "That": 3611,
      "abetes": 3612,
      "enty": 3613,
      "ĠHigh": 3614,
      "Ġadop": 3615,
      "Ġspirit": 3616,
      "ica": 3617,
      "ĠGreat": 3618,
      "Ġdiseases": 3619,
      "Ġ>": 3620,
      "Ġstaff": 3621,
      "Ġwanted": 3622,
      "Ġbeyond": 3623,
      "ords": 3624,
      "ĠInst": 3625,
      "Ġdegree": 3626,
      "Ġchoice": 3627,
      "Ġprotein": 3628,
      "Ġmole": 3629,
      "Ġinform": 3630,
      "Ġprotection": 3631,
      "Ġconstruction": 3632,
      "Ġoffice": 3633,
      "Ġlocation": 3634,
      "ees": 3635,
      "Ġsevere": 3636,
      "Ġnote": 3637,
      "ĠChristian": 3638,
      "more": 3639,
      "Ġdetails": 3640,
      "ĠMr": 3641,
      "čĊčĊĠĠĠĠ": 3642,
      "ĠCounty": 3643,
      "alt": 3644,
      "Ġequal": 3645,
      "ĠBlack": 3646,
      "Ġcontext": 3647,
      "ĠPress": 3648,
      "ĠAfrica": 3649,
      "Ġgames": 3650,
      "Ġprocesses": 3651,
      "Ġenter": 3652,
      "Ġsurround": 3653,
      "Ġborn": 3654,
      "Ġmob": 3655,
      "pped": 3656,
      "Ġneigh": 3657,
      "nes": 3658,
      "oul": 3659,
      "ibly": 3660,
      "Ġhous": 3661,
      "Ġfeature": 3662,
      "ĠJanuary": 3663,
      "cks": 3664,
      "aur": 3665,
      "Ġrules": 3666,
      "Ġbound": 3667,
      "Ġinfluence": 3668,
      "ensity": 3669,
      "ĠCour": 3670,
      "Ġple": 3671,
      "Ġ60": 3672,
      "ĠRed": 3673,
      "Ġmiddle": 3674,
      "ĠChild": 3675,
      "ĠSeptember": 3676,
      "ocr": 3677,
      "Ġefforts": 3678,
      "0000": 3679,
      "Ġreasons": 3680,
      "Ġmill": 3681,
      "Ġleaves": 3682,
      "Ġoptions": 3683,
      "aling": 3684,
      "Ġestablish": 3685,
      "ĠOctober": 3686,
      "Ġremains": 3687,
      "Ġcateg": 3688,
      "Ġupd": 3689,
      "ĠLaw": 3690,
      "ira": 3691,
      "mitted": 3692,
      "Ġsteps": 3693,
      "Ġtrade": 3694,
      "Ġmiles": 3695,
      "Ġgold": 3696,
      "Ġproviding": 3697,
      "men": 3698,
      "IV": 3699,
      "ĠGree": 3700,
      "itect": 3701,
      "Ġbenefit": 3702,
      "Ġwaste": 3703,
      "Ġcold": 3704,
      "Ġbreat": 3705,
      "Ġhabit": 3706,
      "urg": 3707,
      "Ġ28": 3708,
      "Ġbed": 3709,
      "These": 3710,
      "ession": 3711,
      "OS": 3712,
      "ĠTrans": 3713,
      "ĠTechn": 3714,
      "estic": 3715,
      "Ġworked": 3716,
      "Ġcollection": 3717,
      "Ġdied": 3718,
      "Ġdim": 3719,
      "ĠHouse": 3720,
      "ĠFin": 3721,
      "Ġ26": 3722,
      "Ġlimit": 3723,
      "Ġsustain": 3724,
      "ocks": 3725,
      "ĠAfrican": 3726,
      "ĠRiver": 3727,
      "ager": 3728,
      "Ġcitiz": 3729,
      "Ġeffort": 3730,
      "Ġtypically": 3731,
      "Ġconnect": 3732,
      "Ġfilm": 3733,
      "inated": 3734,
      "ara": 3735,
      "ĠLondon": 3736,
      "Ġrat": 3737,
      "ĠEven": 3738,
      "ĠGovern": 3739,
      "Ġexamples": 3740,
      "gn": 3741,
      "Ġnorth": 3742,
      "Ġrare": 3743,
      "rees": 3744,
      "ĠEngland": 3745,
      "orthern": 3746,
      "coh": 3747,
      "Ġcry": 3748,
      "Ġorganization": 3749,
      "ocol": 3750,
      "ĠHistory": 3751,
      "ĠJournal": 3752,
      "Ġtesting": 3753,
      "iable": 3754,
      "aign": 3755,
      "Ġresponsible": 3756,
      "Ġbeg": 3757,
      "Ġlaws": 3758,
      "All": 3759,
      "ĠWilliam": 3760,
      "Ġdistance": 3761,
      "Ġancient": 3762,
      "Ġdat": 3763,
      "Ġimportance": 3764,
      "Ġallowed": 3765,
      "cial": 3766,
      "Ġpiece": 3767,
      "ĠCong": 3768,
      "text": 3769,
      "Ġearlier": 3770,
      "Ġequipment": 3771,
      "Ġstrength": 3772,
      "Ġchance": 3773,
      "Ġsmaller": 3774,
      "Ġhair": 3775,
      "ĠCanada": 3776,
      "inese": 3777,
      "Ġload": 3778,
      "Ġperhaps": 3779,
      "ospital": 3780,
      "left": 3781,
      "Ġshape": 3782,
      "udd": 3783,
      "Ġunit": 3784,
      "Ġacqu": 3785,
      "rick": 3786,
      "Ġelement": 3787,
      "ĠDis": 3788,
      "Ġsurpr": 3789,
      "ĠCommun": 3790,
      "Ġscale": 3791,
      "odes": 3792,
      "met": 3793,
      "Ġmachine": 3794,
      "uro": 3795,
      "Ġcommunication": 3796,
      "Ġpredict": 3797,
      "ĠAmericans": 3798,
      "Ġreligious": 3799,
      "Ġproperties": 3800,
      "Ġinfection": 3801,
      "Ġtechniques": 3802,
      "Ġstyle": 3803,
      "iding": 3804,
      "Ġcru": 3805,
      "Ġsuccessful": 3806,
      "Ġ2007": 3807,
      "Ġ2015": 3808,
      "Ġrock": 3809,
      "arian": 3810,
      "ĠIS": 3811,
      "ĠAlso": 3812,
      "Ġadapt": 3813,
      "odies": 3814,
      "Ġcontract": 3815,
      "Ġsett": 3816,
      "Ġeight": 3817,
      "36": 3818,
      "ĠPat": 3819,
      "Ġfederal": 3820,
      "ellig": 3821,
      "ĠChe": 3822,
      "ĠDecember": 3823,
      "Ġparty": 3824,
      "Ġbul": 3825,
      "AP": 3826,
      "Ġrob": 3827,
      "Ġcommunic": 3828,
      "ĠAre": 3829,
      "Ġconvers": 3830,
      "era": 3831,
      "tery": 3832,
      "ĠWashington": 3833,
      "Ġtests": 3834,
      "Ġconstit": 3835,
      "Ġsouth": 3836,
      "ĠRead": 3837,
      "Is": 3838,
      "Ġfactor": 3839,
      "Ġrule": 3840,
      "Ġoverall": 3841,
      "Ġstar": 3842,
      "Ġhyp": 3843,
      "Ġheard": 3844,
      "Sh": 3845,
      "with": 3846,
      "amples": 3847,
      "ĠRet": 3848,
      "Ġcontroll": 3849,
      "iring": 3850,
      "iate": 3851,
      "34": 3852,
      "Ġrapid": 3853,
      "Ġobjects": 3854,
      "rab": 3855,
      "Ġdistribution": 3856,
      "Ġfully": 3857,
      "Ġhear": 3858,
      "zz": 3859,
      "Ġboard": 3860,
      "Ġadults": 3861,
      "ball": 3862,
      "Ġpow": 3863,
      "ET": 3864,
      "Ġmonitor": 3865,
      "ta": 3866,
      "Ġgiving": 3867,
      "Ġegg": 3868,
      "Ġ27": 3869,
      "iday": 3870,
      "ris": 3871,
      "Ġanti": 3872,
      "orge": 3873,
      "orders": 3874,
      "Ġassum": 3875,
      "que": 3876,
      "Ġfuel": 3877,
      "ault": 3878,
      "roup": 3879,
      "Ġfresh": 3880,
      "reed": 3881,
      "Ġdirection": 3882,
      "ĠSan": 3883,
      "life": 3884,
      "Ġnamed": 3885,
      "oday": 3886,
      "ruary": 3887,
      "Ġice": 3888,
      "cast": 3889,
      "rition": 3890,
      "wards": 3891,
      "wide": 3892,
      "ico": 3893,
      "Ġdefined": 3894,
      "Ġforces": 3895,
      "Ġenh": 3896,
      "Ġmoving": 3897,
      "Ġturned": 3898,
      "Ġagricult": 3899,
      "ĠNovember": 3900,
      "Ġvirt": 3901,
      "Ġbeautiful": 3902,
      "Ġcontinued": 3903,
      "Ġvisual": 3904,
      "ĠLear": 3905,
      "Ġpet": 3906,
      "ĠEast": 3907,
      "Ġolder": 3908,
      "ynam": 3909,
      "Ġapplied": 3910,
      "aste": 3911,
      "Ġspect": 3912,
      "Ġchanged": 3913,
      "iny": 3914,
      "ĠAng": 3915,
      "Ġbank": 3916,
      "While": 3917,
      "lor": 3918,
      "Be": 3919,
      "ĠLord": 3920,
      "Ġ2016": 3921,
      "EC": 3922,
      "Ġteacher": 3923,
      "Ġconsequ": 3924,
      "edia": 3925,
      "Ġitems": 3926,
      "roy": 3927,
      "Ġcand": 3928,
      "Ġplaced": 3929,
      "raw": 3930,
      "Ġanyone": 3931,
      "ĠChurch": 3932,
      "Ġeconomy": 3933,
      "Ġassist": 3934,
      "Ġblog": 3935,
      "Ġbillion": 3936,
      "Ġready": 3937,
      "water": 3938,
      "II": 3939,
      "Ġcompl": 3940,
      "aled": 3941,
      "can": 3942,
      "Ġ194": 3943,
      "Ġcommerc": 3944,
      "ĠSince": 3945,
      "Ġalg": 3946,
      "ĠDon": 3947,
      "Ġhuge": 3948,
      "Ġoutput": 3949,
      "38": 3950,
      "Ġtele": 3951,
      "ĠCoun": 3952,
      "Ġpicture": 3953,
      "Ġ2014": 3954,
      "Ġtur": 3955,
      "itis": 3956,
      "Ġsugar": 3957,
      "Ph": 3958,
      "oted": 3959,
      "Ġsave": 3960,
      "Ġstore": 3961,
      "Ġfigure": 3962,
      "iples": 3963,
      "39": 3964,
      "Ġcompar": 3965,
      "Ġpeace": 3966,
      "do": 3967,
      "Ġcultural": 3968,
      "Ġchurch": 3969,
      "ĠMark": 3970,
      "igned": 3971,
      "....": 3972,
      "Ġpractices": 3973,
      "Ġapply": 3974,
      "Ġpowerful": 3975,
      "Ġweather": 3976,
      "Ġsolutions": 3977,
      "Ġround": 3978,
      "Ġ2017": 3979,
      "ĠMich": 3980,
      "Un": 3981,
      "ament": 3982,
      "sect": 3983,
      "ĠEducation": 3984,
      "Ġasse": 3985,
      "ped": 3986,
      "urance": 3987,
      "Ġmeasures": 3988,
      "mosp": 3989,
      "Ġshowed": 3990,
      "Ġeating": 3991,
      "place": 3992,
      "Ġsch": 3993,
      "Ġconflic": 3994,
      "Ġelectr": 3995,
      "Ġinput": 3996,
      "Ġpassed": 3997,
      "rief": 3998,
      "Ġstandards": 3999,
      "Ġdrive": 4000,
      "Ġnames": 4001,
      "Ġexactly": 4002,
      "ares": 4003,
      "After": 4004,
      "known": 4005,
      "omy": 4006,
      "Ġmap": 4007,
      "They": 4008,
      "Ġrich": 4009,
      "eech": 4010,
      "Ġmer": 4011,
      "Ġrise": 4012,
      "Ġinstru": 4013,
      "cohol": 4014,
      "Ġap": 4015,
      "Ġbehavi": 4016,
      "Ġstories": 4017,
      "ogen": 4018,
      "Ġvill": 4019,
      "house": 4020,
      "Ġtransfer": 4021,
      "Ġcoast": 4022,
      "37": 4023,
      "Ġplat": 4024,
      "ube": 4025,
      "encies": 4026,
      "emy": 4027,
      "Some": 4028,
      "Ġblue": 4029,
      "Ġqual": 4030,
      "Ġhappen": 4031,
      "ĠDevelop": 4032,
      "cious": 4033,
      "Ġrelease": 4034,
      "ste": 4035,
      "Ġsaying": 4036,
      "Ġwat": 4037,
      "ÂłÂłÂł": 4038,
      "Ġpresence": 4039,
      "ĠProf": 4040,
      "force": 4041,
      "ĠAut": 4042,
      "Ġrepe": 4043,
      "iant": 4044,
      "Ġconstruct": 4045,
      "che": 4046,
      "Ġaffected": 4047,
      "ken": 4048,
      "mat": 4049,
      "uild": 4050,
      "Ġefficient": 4051,
      "gra": 4052,
      "ĠConf": 4053,
      "ĠBecause": 4054,
      "Ġmaintain": 4055,
      "ĠVir": 4056,
      "ĠChinese": 4057,
      "ĠGeneral": 4058,
      "Ġmorning": 4059,
      "Ġoption": 4060,
      "Ġstatus": 4061,
      "unction": 4062,
      "anish": 4063,
      "OT": 4064,
      "ĠDec": 4065,
      "rant": 4066,
      "Ġsymbol": 4067,
      "Ġmag": 4068,
      "Ġcopy": 4069,
      "ternal": 4070,
      "Ġdoub": 4071,
      "ĠDes": 4072,
      "Ġhit": 4073,
      "lick": 4074,
      "Ġwinter": 4075,
      "Ġexisting": 4076,
      "rupt": 4077,
      "ald": 4078,
      "Ġmajority": 4079,
      "Ġoccup": 4080,
      "Ġgets": 4081,
      "oo": 4082,
      "bra": 4083,
      "Ġtruth": 4084,
      "Ġbaby": 4085,
      "Ġsort": 4086,
      "Ġinnov": 4087,
      "Ġcolon": 4088,
      "PA": 4089,
      "Ġstrugg": 4090,
      "Ġcrop": 4091,
      "Ġstarting": 4092,
      "Ġplans": 4093,
      "Ġdiscovered": 4094,
      "Ġtherapy": 4095,
      "ĠBi": 4096,
      "respond": 4097,
      "change": 4098,
      "Ġbacteria": 4099,
      "Ġreduced": 4100,
      "Ġparam": 4101,
      "aker": 4102,
      "Ġfine": 4103,
      "orage": 4104,
      "Ġpric": 4105,
      "ingu": 4106,
      "Ġlooked": 4107,
      "Ġletter": 4108,
      "Ġappears": 4109,
      "100": 4110,
      "Ġdifferences": 4111,
      "anch": 4112,
      "ĠUse": 4113,
      "Ġtask": 4114,
      "ĠMex": 4115,
      "abilities": 4116,
      "Ġwid": 4117,
      "Ġhom": 4118,
      "Ġpretty": 4119,
      "Ġseven": 4120,
      "ĠPhil": 4121,
      "Ġmouth": 4122,
      "Ġinstance": 4123,
      "ros": 4124,
      "ĠUK": 4125,
      "Ġformed": 4126,
      "ĠDavid": 4127,
      "ĠAccording": 4128,
      "Ġattract": 4129,
      "Ġmeeting": 4130,
      "lege": 4131,
      "Ġimmediately": 4132,
      "Ġinstruct": 4133,
      "Ġrain": 4134,
      "Ġclick": 4135,
      "Ġjoint": 4136,
      "Ġillust": 4137,
      "hab": 4138,
      "Ġpresident": 4139,
      "Ġlooks": 4140,
      "cles": 4141,
      "Ġplanning": 4142,
      "Ġteeth": 4143,
      "Ġwonder": 4144,
      "Ġcapacity": 4145,
      "Here": 4146,
      "Ġinitial": 4147,
      "ĠMor": 4148,
      "ĠPal": 4149,
      "Ġcomfort": 4150,
      "Now": 4151,
      "ĠNet": 4152,
      "key": 4153,
      "Ġexpand": 4154,
      "ĠGreen": 4155,
      "Ġtrust": 4156,
      "55": 4157,
      "Ġeasier": 4158,
      "Ġincor": 4159,
      "Ġglass": 4160,
      "Ġopportunities": 4161,
      "ously": 4162,
      "asion": 4163,
      "No": 4164,
      "eters": 4165,
      "eces": 4166,
      "ĠBook": 4167,
      "ĠLa": 4168,
      "rix": 4169,
      "ĠSur": 4170,
      "ST": 4171,
      "Ġslight": 4172,
      "cont": 4173,
      "ping": 4174,
      "Ġfelt": 4175,
      "Ġguide": 4176,
      "Ġopin": 4177,
      "Ġevalu": 4178,
      "Ġreports": 4179,
      "iance": 4180,
      "Ġteach": 4181,
      "arrow": 4182,
      "icip": 4183,
      "body": 4184,
      "Ġhour": 4185,
      "Ġguid": 4186,
      "Ġing": 4187,
      "ĠSee": 4188,
      "Ġacad": 4189,
      "Ġ2006": 4190,
      "Ġsitu": 4191,
      "Ġstatement": 4192,
      "bb": 4193,
      "that": 4194,
      "ux": 4195,
      "ĠOb": 4196,
      "Ġcomponents": 4197,
      "Ġidentified": 4198,
      "Ġcampaign": 4199,
      "Ġexplain": 4200,
      "Ġplanet": 4201,
      "âĢĿ,": 4202,
      "199": 4203,
      "Ġsuppl": 4204,
      "Ġdecided": 4205,
      "Ġsong": 4206,
      "ĠEach": 4207,
      "Ġmessage": 4208,
      "Ġfruit": 4209,
      "wood": 4210,
      "Ġoccurs": 4211,
      "Ġactions": 4212,
      "Ġrequirements": 4213,
      "ndom": 4214,
      "opy": 4215,
      "ĠFebruary": 4216,
      "32": 4217,
      "oration": 4218,
      "Ġlearned": 4219,
      "Ġrot": 4220,
      "iences": 4221,
      "ĠOff": 4222,
      "Ġactual": 4223,
      "Ġheavy": 4224,
      "Ġreleased": 4225,
      "Ġnor": 4226,
      "Ġexposure": 4227,
      "Ġcharge": 4228,
      "Ġsample": 4229,
      "bre": 4230,
      "Ġ29": 4231,
      "Ġobserved": 4232,
      "EM": 4233,
      "tee": 4234,
      "Ġpresented": 4235,
      "Ġtrou": 4236,
      "Ġmut": 4237,
      "Ġbottom": 4238,
      "Ġcommercial": 4239,
      "gment": 4240,
      "umn": 4241,
      "Ġexperim": 4242,
      "Ġemp": 4243,
      "Ġcredit": 4244,
      "ĠDuring": 4245,
      "Ġgoals": 4246,
      "Ar": 4247,
      "Ġcelebr": 4248,
      "ĠInter": 4249,
      "ĠArch": 4250,
      "inter": 4251,
      "Ġmoved": 4252,
      "erences": 4253,
      "Ġforeign": 4254,
      "Ġdrugs": 4255,
      "Ġfreed": 4256,
      "My": 4257,
      "ĠPeople": 4258,
      "ĠThus": 4259,
      "Ġincreases": 4260,
      "Ġmission": 4261,
      "Ġextremely": 4262,
      "road": 4263,
      "AD": 4264,
      "Ġbalance": 4265,
      "Ġcities": 4266,
      "Ġrelatively": 4267,
      "ĠWater": 4268,
      "Ġcomment": 4269,
      "Ġsigns": 4270,
      "ĠâĢ¦": 4271,
      "urt": 4272,
      "aughter": 4273,
      "orial": 4274,
      "Ġbelief": 4275,
      "ĠVol": 4276,
      "uit": 4277,
      "apers": 4278,
      "PS": 4279,
      "Ġsem": 4280,
      "Ġexhib": 4281,
      "ii": 4282,
      "related": 4283,
      "Ġdrop": 4284,
      "ifically": 4285,
      "igen": 4286,
      "alle": 4287,
      "Ġknew": 4288,
      "Ġesc": 4289,
      "Ġatmosp": 4290,
      "Ġdivid": 4291,
      "urban": 4292,
      "Ġwhom": 4293,
      "Ġpp": 4294,
      "Ġdiabetes": 4295,
      "Ġcommonly": 4296,
      "Ġpregn": 4297,
      "Ġincome": 4298,
      "otes": 4299,
      "Ġphilos": 4300,
      "Ġserve": 4301,
      "which": 4302,
      "ĠAssociation": 4303,
      "ags": 4304,
      "ĠInternet": 4305,
      "clus": 4306,
      "Ġexcell": 4307,
      "ING": 4308,
      "Ġgain": 4309,
      "Ġfaith": 4310,
      "Ġstream": 4311,
      "Ġsetting": 4312,
      "Ġchallenges": 4313,
      "ij": 4314,
      "Ġhighest": 4315,
      "ĠWhy": 4316,
      "ĠSociety": 4317,
      "Ġcollabor": 4318,
      "Ġchallenge": 4319,
      "Ġseparate": 4320,
      "ague": 4321,
      "Ġpul": 4322,
      "ĠSpec": 4323,
      "Ġsquare": 4324,
      "Our": 4325,
      "Ġhistorical": 4326,
      "othes": 4327,
      "Ġgarden": 4328,
      "ffect": 4329,
      "tical": 4330,
      "Ġinterested": 4331,
      "ĠAustralia": 4332,
      "Ġsav": 4333,
      "Ġfeeling": 4334,
      "Ġarchitect": 4335,
      "ĠProgram": 4336,
      "ĠDem": 4337,
      "Ġdesp": 4338,
      "Ġconv": 4339,
      "rates": 4340,
      "Ġfig": 4341,
      "Ġprefer": 4342,
      "phas": 4343,
      "lamm": 4344,
      "omas": 4345,
      "Ġreference": 4346,
      "Ġthousands": 4347,
      "Ġspring": 4348,
      "fl": 4349,
      "Ġ2000": 4350,
      "rows": 4351,
      "mp": 4352,
      "char": 4353,
      "Ġindependent": 4354,
      "75": 4355,
      "rehens": 4356,
      "gery": 4357,
      "Ġaccur": 4358,
      "à¤": 4359,
      "Ġign": 4360,
      "Ġriver": 4361,
      "olute": 4362,
      "ĠProt": 4363,
      "Ġded": 4364,
      "Ġevolution": 4365,
      "Ġkn": 4366,
      "ses": 4367,
      "Ġconnected": 4368,
      "ĠUnion": 4369,
      "Ġfemale": 4370,
      "Ġcorrespond": 4371,
      "eared": 4372,
      "Ġexpression": 4373,
      "Ġpatterns": 4374,
      "orith": 4375,
      "Ġpi": 4376,
      "Ġbirds": 4377,
      "ĠPublic": 4378,
      "ĠCollege": 4379,
      "amm": 4380,
      "Ġ2005": 4381,
      "Ġrace": 4382,
      "Ġutil": 4383,
      "78": 4384,
      "care": 4385,
      "Ġnovel": 4386,
      "Ġoperations": 4387,
      "ocal": 4388,
      "ching": 4389,
      "ĠSer": 4390,
      "Ġcarried": 4391,
      "!!": 4392,
      "RO": 4393,
      "Ġ80": 4394,
      "ams": 4395,
      "Ġmathemat": 4396,
      "iated": 4397,
      "Ġreality": 4398,
      "ĠJames": 4399,
      "Ġplatform": 4400,
      "ida": 4401,
      "Ġstraight": 4402,
      "col": 4403,
      "Ġtrib": 4404,
      "Ġtour": 4405,
      "ĠMary": 4406,
      "Ġfinding": 4407,
      "ĠRepublic": 4408,
      "Ġdoor": 4409,
      "ĠCongress": 4410,
      "EL": 4411,
      "ĠOver": 4412,
      "ĠCouncil": 4413,
      "Ġmist": 4414,
      "Ġ2018": 4415,
      "works": 4416,
      "band": 4417,
      "ĠGermany": 4418,
      "Ġspot": 4419,
      "ĠFrance": 4420,
      "ĠTheir": 4421,
      "Ġvision": 4422,
      "pen": 4423,
      "Ġpartners": 4424,
      "tered": 4425,
      "ĠCourt": 4426,
      "Ġanx": 4427,
      "DA": 4428,
      "ION": 4429,
      "Ġexperiences": 4430,
      "Ġgenetic": 4431,
      "Ġsatis": 4432,
      "ĠRoman": 4433,
      "Ġrandom": 4434,
      "Ġabsor": 4435,
      "Ġstim": 4436,
      "Ġjournal": 4437,
      "Ġmig": 4438,
      "rep": 4439,
      "Ġcareer": 4440,
      "board": 4441,
      "Cl": 4442,
      "Ġhop": 4443,
      "Ġcouple": 4444,
      "Ġdiscussion": 4445,
      "Ġvoice": 4446,
      "Ġphone": 4447,
      "Ġgeneration": 4448,
      "Ġwife": 4449,
      "Ġremove": 4450,
      "Ġorganizations": 4451,
      "ios": 4452,
      "gypt": 4453,
      "Ġelim": 4454,
      "name": 4455,
      "Ġscen": 4456,
      "Ġconnection": 4457,
      "Ġkept": 4458,
      "Ġclearly": 4459,
      "anging": 4460,
      "Ġvolume": 4461,
      "Ġalternative": 4462,
      "Ġperformed": 4463,
      "Ġpages": 4464,
      "Ġcombination": 4465,
      "Ġcitizens": 4466,
      "erved": 4467,
      "Ġtopic": 4468,
      "well": 4469,
      "Ġeducational": 4470,
      "Ġliqu": 4471,
      "mark": 4472,
      "ressed": 4473,
      "Ġeventually": 4474,
      "ĠLat": 4475,
      "ĠHol": 4476,
      "Ġcollege": 4477,
      "Ġsche": 4478,
      "hors": 4479,
      "osy": 4480,
      "Ġspent": 4481,
      "Â°": 4482,
      "isation": 4483,
      "ĠRel": 4484,
      "Ġweak": 4485,
      "65": 4486,
      "Ġtissue": 4487,
      "ĠPaul": 4488,
      "Ġlegis": 4489,
      "Ġlic": 4490,
      "ĠSen": 4491,
      "ded": 4492,
      "ĠFound": 4493,
      "oma": 4494,
      "Ġconver": 4495,
      "44": 4496,
      "Ġnotes": 4497,
      "Ġfields": 4498,
      "Ġbelieved": 4499,
      "Sp": 4500,
      "Ġarm": 4501,
      "].": 4502,
      "ctors": 4503,
      "Ġadjust": 4504,
      "Ġsignificantly": 4505,
      "Ġroll": 4506,
      "ĠÃ": 4507,
      "Ġstrategies": 4508,
      "Ġ70": 4509,
      "och": 4510,
      "Ġquar": 4511,
      "Ġcovered": 4512,
      "atically": 4513,
      "Ġintroduced": 4514,
      "Ġclasses": 4515,
      "ĠDNA": 4516,
      "ĠWeb": 4517,
      "ĠJewish": 4518,
      "Ġunf": 4519,
      "Ġalcohol": 4520,
      "Ġsac": 4521,
      "ishing": 4522,
      "Ġbackground": 4523,
      "Ġplaying": 4524,
      "Ġregions": 4525,
      "rete": 4526,
      "iest": 4527,
      "Ġbrother": 4528,
      "Ġiron": 4529,
      "Ġtox": 4530,
      "Ġrequest": 4531,
      "Ġtim": 4532,
      "Ġbecoming": 4533,
      "Ġsend": 4534,
      "Ġsurvey": 4535,
      "Ġreplace": 4536,
      "Ġcertainly": 4537,
      "ĠWork": 4538,
      "Ġremov": 4539,
      "Ġtransform": 4540,
      "Ġrecords": 4541,
      "antic": 4542,
      "Ġmetal": 4543,
      "Ġfamous": 4544,
      "Ġconfirm": 4545,
      "yd": 4546,
      "Ġtreated": 4547,
      "Ġexplore": 4548,
      "Ġhappy": 4549,
      "Ġmentioned": 4550,
      "Ġhappens": 4551,
      "ĠPost": 4552,
      "oper": 4553,
      "ĠEvery": 4554,
      "uration": 4555,
      "Ġtried": 4556,
      "Ġfinally": 4557,
      "Ġnative": 4558,
      "Ġstructures": 4559,
      "uses": 4560,
      "Ġillness": 4561,
      "ago": 4562,
      "Ġbrand": 4563,
      "ĠRev": 4564,
      "Ġdouble": 4565,
      "ĠPhys": 4566,
      "Ġbud": 4567,
      "âĪ": 4568,
      "ressive": 4569,
      "ĠAv": 4570,
      "porary": 4571,
      "Ġadvantage": 4572,
      "ias": 4573,
      "down": 4574,
      "Ġcounter": 4575,
      "Ġarr": 4576,
      "umber": 4577,
      "Ġmo": 4578,
      "ygen": 4579,
      "Ġroot": 4580,
      "Ġresistance": 4581,
      "ael": 4582,
      "Ġobvious": 4583,
      "ographic": 4584,
      "asks": 4585,
      "Ġaw": 4586,
      "Ġkilled": 4587,
      "Ġplastic": 4588,
      "ĠTherefore": 4589,
      "Ġcast": 4590,
      "Ġcircum": 4591,
      "Ġmeant": 4592,
      "Ġmale": 4593,
      "ounced": 4594,
      "Ġphen": 4595,
      "ĠAir": 4596,
      "Ġhomes": 4597,
      "Ġtechnologies": 4598,
      "ĠMedic": 4599,
      "Ġexpert": 4600,
      "riage": 4601,
      "Ġvary": 4602,
      "Ġdecisions": 4603,
      "Ġpark": 4604,
      "Ġstrate": 4605,
      "Ġbreast": 4606,
      "Ġstrategy": 4607,
      "Ġapproximately": 4608,
      "Ġchanging": 4609,
      "Ġspeech": 4610,
      "iling": 4611,
      "Â·Â·": 4612,
      "ĠJe": 4613,
      "Ġannual": 4614,
      "omic": 4615,
      "Ġperspect": 4616,
      "Ġ90": 4617,
      "point": 4618,
      "New": 4619,
      "Ġdro": 4620,
      "Ġprepar": 4621,
      "ĠWestern": 4622,
      "Ġhelped": 4623,
      "Ġexperiment": 4624,
      "urrent": 4625,
      "Why": 4626,
      "31": 4627,
      "Ġstorage": 4628,
      "Ġfiles": 4629,
      "48": 4630,
      "ĠEgypt": 4631,
      "ĠWind": 4632,
      "ĠAN": 4633,
      "ructure": 4634,
      "Ġdestroy": 4635,
      "Ġdefinition": 4636,
      "==": 4637,
      "Ad": 4638,
      "ĠUN": 4639,
      "Ġsuggests": 4640,
      "Ġdie": 4641,
      "ĠPlan": 4642,
      "Ġresource": 4643,
      "Ġdecades": 4644,
      "Ġmath": 4645,
      "Ġnotice": 4646,
      "Ġsexual": 4647,
      "Ġregarding": 4648,
      "ortunately": 4649,
      "utive": 4650,
      "Ġlik": 4651,
      "Ġinternal": 4652,
      "CC": 4653,
      "Ġtrend": 4654,
      "Ġexcess": 4655,
      "Ġcoord": 4656,
      "ĠMiss": 4657,
      "Ġimmune": 4658,
      "IL": 4659,
      "Ġintellig": 4660,
      "Ġunits": 4661,
      "ĠSub": 4662,
      "Ġplayed": 4663,
      "ception": 4664,
      "ĠWhite": 4665,
      "Ġsolid": 4666,
      "what": 4667,
      "ifying": 4668,
      "Ġconsult": 4669,
      "Ġconsumption": 4670,
      "Ġreb": 4671,
      "leg": 4672,
      "ĠClass": 4673,
      "Ġantib": 4674,
      ".;": 4675,
      "Ġbattle": 4676,
      "Ġemissions": 4677,
      "Ġcomplic": 4678,
      "ĠJapanese": 4679,
      "olved": 4680,
      "Ġthick": 4681,
      "ĠST": 4682,
      "Ġcycle": 4683,
      "Ġrelevant": 4684,
      "ĠTex": 4685,
      "Ġpolice": 4686,
      "Ġdetermined": 4687,
      "Ġnutri": 4688,
      "Ġlived": 4689,
      "uing": 4690,
      "ĠGeorge": 4691,
      "Ġequation": 4692,
      "Ġ)": 4693,
      "Ġclinical": 4694,
      "ĠUnder": 4695,
      "Ġtransl": 4696,
      "unk": 4697,
      "],": 4698,
      "Ġmal": 4699,
      "Ġcra": 4700,
      "ipe": 4701,
      "ĠDirect": 4702,
      "Ġradio": 4703,
      "čĊčĊÂłÂłÂł": 4704,
      "itz": 4705,
      "rum": 4706,
      "gl": 4707,
      "Ġkid": 4708,
      "Ġemphas": 4709,
      "Ġdoll": 4710,
      "Ġaspects": 4711,
      "Ġ65": 4712,
      "acing": 4713,
      "Ġ195": 4714,
      "Ġoperation": 4715,
      "Ġprofession": 4716,
      "Ġcontrast": 4717,
      "Ġfirm": 4718,
      "Ġserved": 4719,
      "Ġlayer": 4720,
      "Ġcustomers": 4721,
      "Ġalgorith": 4722,
      "Ġfindings": 4723,
      "Ġsand": 4724,
      "Ġminor": 4725,
      "Ġestimated": 4726,
      "Ġdownload": 4727,
      "Ġnumerous": 4728,
      "ĠRober": 4729,
      "ĠRich": 4730,
      "Ġdynam": 4731,
      "ĠOnce": 4732,
      "Ġwel": 4733,
      "Ġmilk": 4734,
      "ulf": 4735,
      "Ġ2019": 4736,
      "Ġupper": 4737,
      "acters": 4738,
      "Ġconducted": 4739,
      "Ġhol": 4740,
      "Ġunivers": 4741,
      "ĠGoogle": 4742,
      "Ġpolicies": 4743,
      "Ġgrand": 4744,
      "vis": 4745,
      "berg": 4746,
      "ĠService": 4747,
      "vision": 4748,
      "Ġremoved": 4749,
      "Ġsecret": 4750,
      "atever": 4751,
      "Ġfloor": 4752,
      "Con": 4753,
      "Ġgrant": 4754,
      "Ġlatest": 4755,
      "enth": 4756,
      "ĠHel": 4757,
      "rome": 4758,
      "Ġviolence": 4759,
      "ĠBel": 4760,
      "BC": 4761,
      "Ġship": 4762,
      "Ġhousehold": 4763,
      "Ġthy": 4764,
      "Ġmostly": 4765,
      "Ġtrig": 4766,
      "Ġresulting": 4767,
      "Ġspend": 4768,
      "ĠSte": 4769,
      "Ġerror": 4770,
      "Ġband": 4771,
      "zy": 4772,
      "ophy": 4773,
      "Ġmanner": 4774,
      "Ġarticles": 4775,
      "Ġmaximum": 4776,
      "Ġreaction": 4777,
      "Ġindustrial": 4778,
      "Ġfol": 4779,
      "Ġmaster": 4780,
      "ĠEnvironment": 4781,
      ")$": 4782,
      "Ġclos": 4783,
      "dis": 4784,
      "Ġpieces": 4785,
      "Ġmuscle": 4786,
      "ht": 4787,
      "inger": 4788,
      "Ġsignal": 4789,
      "Ġrecommended": 4790,
      "Ġpreviously": 4791,
      "nam": 4792,
      "'d": 4793,
      "ĠTest": 4794,
      "!âĢĿ": 4795,
      "oyal": 4796,
      "aped": 4797,
      "Ġnoted": 4798,
      "Ġprepared": 4799,
      "Ġdegrees": 4800,
      "Ġburn": 4801,
      "ilit": 4802,
      "ĠWell": 4803,
      "nergy": 4804,
      "Ġfrequently": 4805,
      "icated": 4806,
      "Ġdogs": 4807,
      "Ġexperienced": 4808,
      "onic": 4809,
      "othing": 4810,
      "ears": 4811,
      "Ġ2020": 4812,
      "Ġparticipants": 4813,
      "Ġvolunt": 4814,
      "stitution": 4815,
      "From": 4816,
      "Ġadvanced": 4817,
      "Ġowners": 4818,
      "ĠNews": 4819,
      "Ġbodies": 4820,
      "Ġoffered": 4821,
      "However": 4822,
      "Ġessay": 4823,
      "ĠEv": 4824,
      "Ġfailure": 4825,
      "CO": 4826,
      "Ġcore": 4827,
      "ĠPort": 4828,
      "ander": 4829,
      "Ġmix": 4830,
      "rans": 4831,
      "ĠGovernment": 4832,
      "Ġphase": 4833,
      "Ġdram": 4834,
      "Ġappoint": 4835,
      "Ġfreedom": 4836,
      "osite": 4837,
      "Ġleads": 4838,
      "Ġexcellent": 4839,
      "Ġreached": 4840,
      "Ġdistinct": 4841,
      "Ġnuclear": 4842,
      "ĠBen": 4843,
      "Ġdetect": 4844,
      "Ġtitle": 4845,
      "Ġideal": 4846,
      "Ġproposed": 4847,
      "Ġmanufacture": 4848,
      "ĠÎ": 4849,
      "rieved": 4850,
      "ĠSun": 4851,
      "cular": 4852,
      "Ġvictim": 4853,
      "lig": 4854,
      "ĠRem": 4855,
      "asure": 4856,
      "Ġsusp": 4857,
      "Ġinterview": 4858,
      "ĠSocial": 4859,
      "oting": 4860,
      "Ġkill": 4861,
      "ĠProject": 4862,
      "Ġtechnique": 4863,
      "Ġhappened": 4864,
      "MS": 4865,
      "Ġimpl": 4866,
      "standing": 4867,
      "Ġrelationships": 4868,
      "field": 4869,
      "Ġproperly": 4870,
      "Ġstation": 4871,
      "ĠSupp": 4872,
      "Ġ35": 4873,
      "Ġmedicine": 4874,
      "Ġcompleted": 4875,
      "hetic": 4876,
      "DF": 4877,
      "Ġbelong": 4878,
      "iveness": 4879,
      "alled": 4880,
      "Ġhelping": 4881,
      "Ġfollows": 4882,
      "roph": 4883,
      "Ġhttps": 4884,
      "Ġbond": 4885,
      "ĠĠĠĠĠĠĠĠ": 4886,
      "ĠDevelopment": 4887,
      "Ġdream": 4888,
      "64": 4889,
      "ĠMac": 4890,
      "Ġbuildings": 4891,
      "ĠOut": 4892,
      "ĠMart": 4893,
      "ixt": 4894,
      "iox": 4895,
      "Ġpal": 4896,
      "olf": 4897,
      "ny": 4898,
      "ĠUp": 4899,
      "Ġfert": 4900,
      "Ġpaid": 4901,
      "Ġgod": 4902,
      "bal": 4903,
      "Ġshop": 4904,
      "elines": 4905,
      "essel": 4906,
      "Ġdescribe": 4907,
      "Ġviews": 4908,
      "Ġwidely": 4909,
      "Ġlib": 4910,
      "Ġurban": 4911,
      "ĠJer": 4912,
      "Ġauthors": 4913,
      "ĠFore": 4914,
      "Ġcharacters": 4915,
      "ipped": 4916,
      "essor": 4917,
      "Ġencourage": 4918,
      "ĠHuman": 4919,
      "icial": 4920,
      "bed": 4921,
      "Ġclassroom": 4922,
      "Ġattrib": 4923,
      "Ġsell": 4924,
      "Ġorganic": 4925,
      "kin": 4926,
      "ey": 4927,
      "ĠDist": 4928,
      "Ġheight": 4929,
      "ĠDef": 4930,
      "ĠFood": 4931,
      "Ġabsolute": 4932,
      "Ġstock": 4933,
      "Ġotherwise": 4934,
      "Ġbill": 4935,
      "azing": 4936,
      "Ġliterature": 4937,
      "Ġinsect": 4938,
      "Ġpray": 4939,
      "Ġspl": 4940,
      "Ġaf": 4941,
      "itors": 4942,
      "tes": 4943,
      "Ġjobs": 4944,
      "čĊčĊĠĠĠĠčĊčĊčĊĠĠĠĠĠ": 4945,
      "Ġseed": 4946,
      "erate": 4947,
      "ented": 4948,
      "ville": 4949,
      "rier": 4950,
      "ĠTur": 4951,
      "ologist": 4952,
      "UR": 4953,
      "Ġinjury": 4954,
      "Ġprocessing": 4955,
      "isher": 4956,
      "Ġmeat": 4957,
      "Ġsen": 4958,
      "Ġcreation": 4959,
      "Ġ2004": 4960,
      "akers": 4961,
      "05": 4962,
      "Ġadvice": 4963,
      "Ġmanage": 4964,
      "ĠMount": 4965,
      "Ġfrequency": 4966,
      "Ġtalking": 4967,
      "tra": 4968,
      "Ġflood": 4969,
      "Ġdepending": 4970,
      "rey": 4971,
      "ooth": 4972,
      "Ġwish": 4973,
      "ĠTexas": 4974,
      "ĠHen": 4975,
      "Ġprices": 4976,
      "Ġdatab": 4977,
      "osen": 4978,
      "ĠBay": 4979,
      "Ġbone": 4980,
      "Ġdisorder": 4981,
      "ĠCath": 4982,
      "Ġcharacteristics": 4983,
      "Ġdiss": 4984,
      "alse": 4985,
      "za": 4986,
      "Ġsufficient": 4987,
      "Ġrul": 4988,
      "ĠMuseum": 4989,
      "Ġcert": 4990,
      "ulum": 4991,
      "Ġhearing": 4992,
      "rations": 4993,
      "According": 4994,
      "Ġaren": 4995,
      "Ġexperts": 4996,
      "ĠCle": 4997,
      "01": 4998,
      "Ġinterpret": 4999,
      "Ab": 5000,
      "Pl": 5001,
      "ĠIts": 5002,
      "iled": 5003,
      "ails": 5004,
      "95": 5005,
      "Ġchann": 5006,
      "Ġshared": 5007,
      "Ġoxygen": 5008,
      "Ġsets": 5009,
      "Ġreturned": 5010,
      "ishes": 5011,
      "88": 5012,
      "Ġtouch": 5013,
      "Ġsynt": 5014,
      "Te": 5015,
      "ĠDi": 5016,
      "ĠSol": 5017,
      "but": 5018,
      "Ġincorpor": 5019,
      "Do": 5020,
      "ĠTHE": 5021,
      "Ġtrain": 5022,
      "iced": 5023,
      "Ġgrass": 5024,
      "Ġbright": 5025,
      "Ġtal": 5026,
      "Ġsupported": 5027,
      "ĠIsland": 5028,
      "add": 5029,
      "Ġseek": 5030,
      "Re": 5031,
      "Ġdiscover": 5032,
      "Ġdepression": 5033,
      "iverse": 5034,
      "Ġassessment": 5035,
      "Ġmotion": 5036,
      "Ġconcerns": 5037,
      "Ġmel": 5038,
      "Ġinvestment": 5039,
      "Ġshowing": 5040,
      "ĠMet": 5041,
      "Ġplayers": 5042,
      "ĊĊ": 5043,
      "Ġbow": 5044,
      "Ġreferred": 5045,
      "Ġdeliver": 5046,
      "angle": 5047,
      "Ġgar": 5048,
      "ester": 5049,
      "Ġelectricity": 5050,
      "LE": 5051,
      "ossible": 5052,
      "ĠOrgan": 5053,
      "rog": 5054,
      "tion": 5055,
      "Ġcontinues": 5056,
      "Ġmotor": 5057,
      "ria": 5058,
      "Ġdisapp": 5059,
      "ĠGreek": 5060,
      "Ġcausing": 5061,
      "Ġdangerous": 5062,
      "Ġwealth": 5063,
      "Ġsmart": 5064,
      "Ġgone": 5065,
      "Ġgene": 5066,
      "Ġtemperatures": 5067,
      "Ġformat": 5068,
      "Ġonto": 5069,
      "Ġyouth": 5070,
      "Ġphysic": 5071,
      "Ġgirls": 5072,
      "Ġhospital": 5073,
      "Ġmobile": 5074,
      "Ġobtained": 5075,
      "Ġtechnical": 5076,
      "Ġinvolves": 5077,
      "des": 5078,
      "ĠIN": 5079,
      "ĠLou": 5080,
      "Ġbrief": 5081,
      "eline": 5082,
      "Ġprocedure": 5083,
      "Ġisol": 5084,
      "47": 5085,
      "Ġraised": 5086,
      "ĠBro": 5087,
      "estion": 5088,
      "Ġrisks": 5089,
      "Ġisland": 5090,
      "Ġacademic": 5091,
      "Ġlinks": 5092,
      "Ġpromote": 5093,
      "Ġclosed": 5094,
      "ĠChildren": 5095,
      "Ġminimum": 5096,
      "ĠPri": 5097,
      "Ġprinciples": 5098,
      "Ġinvolve": 5099,
      "ĠMal": 5100,
      "**": 5101,
      "ya": 5102,
      "Ġvalid": 5103,
      "inating": 5104,
      "cript": 5105,
      "ormal": 5106,
      "ado": 5107,
      "Ġcomprehens": 5108,
      "Ġsurgery": 5109,
      "ĠInf": 5110,
      "Ġmyself": 5111,
      "ĠBer": 5112,
      "Ġefficiency": 5113,
      "Ġagg": 5114,
      "Ġnice": 5115,
      "Ġintended": 5116,
      "Res": 5117,
      "Ġpun": 5118,
      "rence": 5119,
      "Ġreprodu": 5120,
      "uting": 5121,
      "orrow": 5122,
      "ĠGroup": 5123,
      "Ġauthority": 5124,
      "Ġfort": 5125,
      "mas": 5126,
      "Ġye": 5127,
      "ĠSpanish": 5128,
      "ĠCam": 5129,
      "ancing": 5130,
      "Ġmort": 5131,
      "rian": 5132,
      "TS": 5133,
      "ĠSam": 5134,
      "Ġpurposes": 5135,
      "enses": 5136,
      "Ġkeeping": 5137,
      "Ġocean": 5138,
      "Ġwindow": 5139,
      "Ġlandsc": 5140,
      "Ġimproved": 5141,
      "Ġconclud": 5142,
      "Ġallowing": 5143,
      "Ġleader": 5144,
      "Ġflat": 5145,
      "ĠBas": 5146,
      "Ġpopulations": 5147,
      "Ġvessel": 5148,
      "Ġflex": 5149,
      "Ġvehicle": 5150,
      "ĠData": 5151,
      "Ġcombined": 5152,
      "Ġconflict": 5153,
      "Ġreducing": 5154,
      "Ġthoughts": 5155,
      "Ġadvance": 5156,
      "Ġsides": 5157,
      "Ġvul": 5158,
      "icks": 5159,
      "Ġreligion": 5160,
      "Ġnutrition": 5161,
      "itness": 5162,
      "cel": 5163,
      "ĠLife": 5164,
      "Ġwasn": 5165,
      "Ġengineering": 5166,
      "Ġadding": 5167,
      "49": 5168,
      "rem": 5169,
      "state": 5170,
      "ĠAcad": 5171,
      "Ġhus": 5172,
      "Ġeffectively": 5173,
      "ĠTwo": 5174,
      "Let": 5175,
      "ĠSal": 5176,
      "Ġconcern": 5177,
      "Ġmotiv": 5178,
      "apes": 5179,
      "Ġidentity": 5180,
      "clusion": 5181,
      "Ġshar": 5182,
      "Ġpractical": 5183,
      "Ġcris": 5184,
      "amental": 5185,
      "Ġchronic": 5186,
      "no": 5187,
      "Ġcalc": 5188,
      "Ġsin": 5189,
      "oom": 5190,
      "Ġslightly": 5191,
      "Ġcere": 5192,
      "uable": 5193,
      "Ġwants": 5194,
      "Ġkit": 5195,
      "Ġemployees": 5196,
      "Ġaid": 5197,
      "ĠCentral": 5198,
      "la": 5199,
      "Ã¡": 5200,
      "Ġseemed": 5201,
      "66": 5202,
      "Ġcontinuous": 5203,
      "Ġbusinesses": 5204,
      "Ġoperating": 5205,
      "ĠElect": 5206,
      "ieties": 5207,
      "Ġcandid": 5208,
      "Ġstars": 5209,
      "itely": 5210,
      "ĠSmith": 5211,
      "Ġdirector": 5212,
      "Ġfell": 5213,
      "Ġforced": 5214,
      "win": 5215,
      "Ġdu": 5216,
      "ĠCommission": 5217,
      "cers": 5218,
      "Ġlinked": 5219,
      "ĠOF": 5220,
      "ĠArab": 5221,
      "Ġfif": 5222,
      "Ġdisorders": 5223,
      "going": 5224,
      "UT": 5225,
      "otic": 5226,
      "ffee": 5227,
      "Ġax": 5228,
      "Ġsamples": 5229,
      "Ġsolve": 5230,
      "ASA": 5231,
      "Ġbegins": 5232,
      "nic": 5233,
      "Ġfocused": 5234,
      "ras": 5235,
      "ki": 5236,
      "Ġ2003": 5237,
      "Ġgun": 5238,
      "Ġmere": 5239,
      "inding": 5240,
      "Ġoptim": 5241,
      "Ġneighbor": 5242,
      "Ġfaster": 5243,
      "Ġletters": 5244,
      "))": 5245,
      "Ġlose": 5246,
      "Ġterrit": 5247,
      "ologists": 5248,
      "Ġexistence": 5249,
      "ĠThomas": 5250,
      "omin": 5251,
      "ĠAD": 5252,
      "Ġanxiety": 5253,
      "Ġtrial": 5254,
      "Ġclaims": 5255,
      "Ġdespite": 5256,
      "ĠFlor": 5257,
      "OL": 5258,
      "Ġfamiliar": 5259,
      "Ġargument": 5260,
      "Ġsounds": 5261,
      "comp": 5262,
      "Ġmatch": 5263,
      "Many": 5264,
      "eding": 5265,
      "Ġindex": 5266,
      "Ġselected": 5267,
      "Ġinternet": 5268,
      "RI": 5269,
      "ĠDel": 5270,
      "Ġamounts": 5271,
      "Ġemotional": 5272,
      "ĠAsia": 5273,
      "Ġsector": 5274,
      "Go": 5275,
      "ĠIslam": 5276,
      "Ġhyper": 5277,
      "Ġcoal": 5278,
      "ework": 5279,
      "exp": 5280,
      "Ġreduction": 5281,
      "Ġatmosphere": 5282,
      "Ġinstitutions": 5283,
      "Ġradiation": 5284,
      "ĠAny": 5285,
      "Ġcomponent": 5286,
      "mm": 5287,
      "Ġexplan": 5288,
      "ĠMars": 5289,
      "77": 5290,
      "Ġdiam": 5291,
      "Ġgender": 5292,
      "Ġspecifically": 5293,
      "Ġgrade": 5294,
      "Ġconcepts": 5295,
      "ourney": 5296,
      "Ġprem": 5297,
      "ĠMexico": 5298,
      "hips": 5299,
      "Ġdut": 5300,
      "Ġ45": 5301,
      "ÂłÂłÂłÂł": 5302,
      "ompl": 5303,
      "Ġhelpful": 5304,
      "nel": 5305,
      "ashion": 5306,
      "Ġwave": 5307,
      "ĠFranc": 5308,
      "dden": 5309,
      "85": 5310,
      "Ġdetailed": 5311,
      "ĠPC": 5312,
      "Ġclim": 5313,
      "Ġtum": 5314,
      "ĠDisc": 5315,
      "More": 5316,
      "Ġyellow": 5317,
      "ĠRetrieved": 5318,
      "ĠMem": 5319,
      "Ġzero": 5320,
      "Ġ31": 5321,
      "Ġseeds": 5322,
      "ĠIr": 5323,
      "Ġappeared": 5324,
      "Ġgenes": 5325,
      "ĠStreet": 5326,
      "ĠEnergy": 5327,
      "oking": 5328,
      "Ġopened": 5329,
      "Ġtaught": 5330,
      "Ġliquid": 5331,
      "comes": 5332,
      "Ġkinds": 5333,
      "cal": 5334,
      "arant": 5335,
      "pping": 5336,
      "Ġnav": 5337,
      "Ġwear": 5338,
      "ĠInformation": 5339,
      "Ġrecorded": 5340,
      "ĠSecond": 5341,
      "ĠUsing": 5342,
      "itter": 5343,
      "Ġequival": 5344,
      "46": 5345,
      "ĠMicro": 5346,
      "Ġexposed": 5347,
      "Ġremained": 5348,
      "celer": 5349,
      "enced": 5350,
      "Ġchief": 5351,
      "Ġapprec": 5352,
      "Ġsyn": 5353,
      "Ġexplained": 5354,
      "ĠFree": 5355,
      "Ġfixed": 5356,
      "Ġfacilities": 5357,
      "Ġmainly": 5358,
      "Ġpictures": 5359,
      "Ġmulti": 5360,
      "Ġsweet": 5361,
      "net": 5362,
      "Although": 5363,
      "Ġbudget": 5364,
      "osystem": 5365,
      "CH": 5366,
      "Ġfacts": 5367,
      "ognitive": 5368,
      "Ġresponsibility": 5369,
      "Ġsnow": 5370,
      "ĠHam": 5371,
      "resents": 5372,
      "egin": 5373,
      "Ġdriving": 5374,
      "den": 5375,
      "Ġwest": 5376,
      "(\\": 5377,
      "Ġedge": 5378,
      "Ġinflamm": 5379,
      "ipping": 5380,
      "eria": 5381,
      "ingly": 5382,
      "ĠCD": 5383,
      "ĠFurther": 5384,
      "eck": 5385,
      "ĠVirgin": 5386,
      "ensions": 5387,
      "Ġleaving": 5388,
      "Ġju": 5389,
      "ĠEngine": 5390,
      "Ġunto": 5391,
      "Ġrough": 5392,
      "Ġapparent": 5393,
      "Ġpurchase": 5394,
      "Ġcorpor": 5395,
      "zing": 5396,
      "Ġthou": 5397,
      "ĠPower": 5398,
      "bi": 5399,
      "rich": 5400,
      "Ġresist": 5401,
      "Ġeggs": 5402,
      "ĠOld": 5403,
      "Ġmeasured": 5404,
      "look": 5405,
      "inf": 5406,
      "Ġsudden": 5407,
      "Ġsituations": 5408,
      "ĠBoth": 5409,
      "Ġofficials": 5410,
      "ĠAtl": 5411,
      "free": 5412,
      "ometimes": 5413,
      "Ġrenew": 5414,
      "ĠQue": 5415,
      "Ġgreatest": 5416,
      "acific": 5417,
      "Ġexternal": 5418,
      "Ġvitamin": 5419,
      "Ġcalls": 5420,
      "espite": 5421,
      "Ġseeing": 5422,
      "Ġconservation": 5423,
      "Ġiniti": 5424,
      "ĠGet": 5425,
      "Ġassign": 5426,
      "Ġwet": 5427,
      "Ġvariable": 5428,
      "ĠGood": 5429,
      "ĠStand": 5430,
      "under": 5431,
      "ĠMil": 5432,
      "Ġinterests": 5433,
      "Ġsecure": 5434,
      "riculum": 5435,
      "Ġpure": 5436,
      "istan": 5437,
      "Ġsequence": 5438,
      "ĠKore": 5439,
      "ĠTechnology": 5440,
      "Ġawareness": 5441,
      "hi": 5442,
      "ĠRef": 5443,
      "Ġ$$\\": 5444,
      "Ġextent": 5445,
      "Ġwire": 5446,
      "allel": 5447,
      "Ġopinion": 5448,
      "Ġprison": 5449,
      "Ġpaint": 5450,
      "Ġphenomen": 5451,
      "Ġtasks": 5452,
      "Ġpull": 5453,
      "Ġselection": 5454,
      "aturally": 5455,
      "Ġsuggested": 5456,
      "astern": 5457,
      "stood": 5458,
      "She": 5459,
      "ĠMass": 5460,
      "Ġcomments": 5461,
      "ĠJews": 5462,
      "aks": 5463,
      "Ġthin": 5464,
      "ĠLike": 5465,
      "Ġanswers": 5466,
      "Ġsalt": 5467,
      "Ġstorm": 5468,
      "Ġproport": 5469,
      "ĠFe": 5470,
      "Ġfarmers": 5471,
      "Ġpu": 5472,
      "ĠCompany": 5473,
      "SA": 5474,
      "Ġtooth": 5475,
      "Ġsettle": 5476,
      "Ġneut": 5477,
      "ĠLake": 5478,
      "Most": 5479,
      "Ġformation": 5480,
      "Ġdepends": 5481,
      "Ġaccompl": 5482,
      "________": 5483,
      "Ġdepth": 5484,
      "Ġperman": 5485,
      "Ġdefic": 5486,
      "Ġcircumst": 5487,
      "Ġhorm": 5488,
      "Ġfib": 5489,
      "Ġstone": 5490,
      "Ġperspective": 5491,
      "ĠAnn": 5492,
      "Ġindeed": 5493,
      "Ġmedium": 5494,
      "style": 5495,
      "Ġlabel": 5496,
      "Ġfab": 5497,
      "Ġmur": 5498,
      "Ġparties": 5499,
      "irt": 5500,
      "Ġrow": 5501,
      "ĠStudents": 5502,
      "anges": 5503,
      "Ġaccurate": 5504,
      "Ġcontaining": 5505,
      "}$$": 5506,
      "ĠMont": 5507,
      "Ġcolors": 5508,
      "Ġgoods": 5509,
      "Ġinfections": 5510,
      "Ġsales": 5511,
      "ĠReview": 5512,
      "Americ": 5513,
      "Ġrepresents": 5514,
      "Ġ2001": 5515,
      "Ġtips": 5516,
      "from": 5517,
      "Ġcontribute": 5518,
      "ĠFoundation": 5519,
      "rain": 5520,
      "Ġtopics": 5521,
      "stract": 5522,
      "ĠBet": 5523,
      "Ġindicate": 5524,
      "Ġsoul": 5525,
      "Ġpair": 5526,
      "usiness": 5527,
      "roid": 5528,
      "Ġobtain": 5529,
      "ĠMake": 5530,
      "ĠPM": 5531,
      "west": 5532,
      ".âĢĻ": 5533,
      "rors": 5534,
      "Ġsustainable": 5535,
      "Cont": 5536,
      "Ġnorthern": 5537,
      "Ġstated": 5538,
      "Ġdrinking": 5539,
      "Ġfill": 5540,
      "ivery": 5541,
      "Ġcollected": 5542,
      "Sc": 5543,
      "ĠGold": 5544,
      "Ġtruly": 5545,
      "Ġsouthern": 5546,
      "ĠSl": 5547,
      "roke": 5548,
      "Ġopening": 5549,
      "Ind": 5550,
      "Ġparticles": 5551,
      "Ġdocuments": 5552,
      "Ġemergency": 5553,
      "Ġtro": 5554,
      "Ġoccurred": 5555,
      "Ġvast": 5556,
      "Ġfle": 5557,
      "pha": 5558,
      "ĠMedical": 5559,
      "Ġlanguages": 5560,
      "Ġelectrical": 5561,
      "Ġprimarily": 5562,
      "ĠRobert": 5563,
      "ĠDan": 5564,
      "Ġdin": 5565,
      "idden": 5566,
      "amily": 5567,
      "Ġdaughter": 5568,
      "bert": 5569,
      "Ġdiscussed": 5570,
      "Ġunless": 5571,
      "Ġvent": 5572,
      "Ġshot": 5573,
      "Ġconcerned": 5574,
      "lar": 5575,
      "Ġregist": 5576,
      "ulating": 5577,
      "Ġattacks": 5578,
      "ĠSum": 5579,
      "Ġinsurance": 5580,
      "Ġflowers": 5581,
      "gal": 5582,
      "ady": 5583,
      "Ġconsid": 5584,
      "olars": 5585,
      "rating": 5586,
      "Ġtheore": 5587,
      "ario": 5588,
      "Ġvulner": 5589,
      "Ġtypical": 5590,
      "Ġsubjects": 5591,
      "ĠManagement": 5592,
      "rapy": 5593,
      "Ġsubstant": 5594,
      "Ġstick": 5595,
      "rastructure": 5596,
      "Ġprofessor": 5597,
      "Ġstarts": 5598,
      "Ġweap": 5599,
      "Ġlibrary": 5600,
      "Ġhorse": 5601,
      "Ġdoubt": 5602,
      "Ġfavorite": 5603,
      "86": 5604,
      "Ġfundamental": 5605,
      "ĠHome": 5606,
      "ĠToday": 5607,
      "Ġshel": 5608,
      "Ġeast": 5609,
      "ĠOffice": 5610,
      "Ġstret": 5611,
      "da": 5612,
      "Ġimmig": 5613,
      "agon": 5614,
      "Ġtraffic": 5615,
      "Ġappearance": 5616,
      "Ġarmy": 5617,
      "ĠMo": 5618,
      "76": 5619,
      "Ġbird": 5620,
      "ĠFace": 5621,
      "ĠJud": 5622,
      "ĠJack": 5623,
      "last": 5624,
      "Ġhundreds": 5625,
      "flow": 5626,
      "inent": 5627,
      "Ġdomestic": 5628,
      "Ġwaters": 5629,
      "ĠStep": 5630,
      "ĠCarol": 5631,
      "alysis": 5632,
      "Ġlots": 5633,
      "van": 5634,
      "ĠTV": 5635,
      "ota": 5636,
      "ĠBritain": 5637,
      "Ġ2002": 5638,
      "Ġexpensive": 5639,
      "Ġ1990": 5640,
      "rid": 5641,
      "Ġlinear": 5642,
      "Ġdial": 5643,
      "umin": 5644,
      "Ġpresc": 5645,
      "ndrome": 5646,
      "uls": 5647,
      "ĠArmy": 5648,
      "Ġwait": 5649,
      "ĠMuslim": 5650,
      "Ġcreative": 5651,
      "Ġlargely": 5652,
      "Ġtested": 5653,
      "500": 5654,
      "Ġarms": 5655,
      "oto": 5656,
      "Ġsimpl": 5657,
      "Ġapart": 5658,
      "bits": 5659,
      "Ġproof": 5660,
      "rus": 5661,
      "Ġtherm": 5662,
      "ona": 5663,
      "ĠEconom": 5664,
      "Us": 5665,
      "Ġlung": 5666,
      "Ġroots": 5667,
      "long": 5668,
      "Ġentirely": 5669,
      "Ġpersons": 5670,
      "Ġlesson": 5671,
      "ĠAtt": 5672,
      "Ġraise": 5673,
      "tenance": 5674,
      "Ġexplains": 5675,
      "ĠJose": 5676,
      "ka": 5677,
      "Ġrecognized": 5678,
      "Ġlisted": 5679,
      "Ġwalls": 5680,
      "IG": 5681,
      "venue": 5682,
      "Ġknows": 5683,
      "ĠTer": 5684,
      "Ġrail": 5685,
      "ava": 5686,
      "Ġingred": 5687,
      "ĠBible": 5688,
      "Ġsurrounding": 5689,
      "Ġvegetables": 5690,
      "atric": 5691,
      "Ġgrown": 5692,
      "Ġgall": 5693,
      "osa": 5694,
      "Ġabuse": 5695,
      "89": 5696,
      "ye": 5697,
      "Ġconsequences": 5698,
      "Ġpollution": 5699,
      "Ġextract": 5700,
      "Qu": 5701,
      "Ġnations": 5702,
      "Ġportion": 5703,
      "spect": 5704,
      "ĠHall": 5705,
      "Ġrevolution": 5706,
      "Ġvariables": 5707,
      "CS": 5708,
      "Ġformula": 5709,
      "Ġcontem": 5710,
      "Se": 5711,
      "Ġwww": 5712,
      "Ġdivided": 5713,
      "IP": 5714,
      "Ġnit": 5715,
      "Ġinstrument": 5716,
      "Ġstuff": 5717,
      "ÃŃ": 5718,
      "ĠPlease": 5719,
      "Ġjoin": 5720,
      "Ġtrip": 5721,
      "li": 5722,
      "word": 5723,
      "Ġconsists": 5724,
      "ĠWomen": 5725,
      "ĠLeg": 5726,
      "ĠSpace": 5727,
      "Ġfilled": 5728,
      "Ġaudience": 5729,
      "Ġalt": 5730,
      "AB": 5731,
      "Ġcrisis": 5732,
      "orter": 5733,
      "Ġpossibly": 5734,
      "ait": 5735,
      "Ġwhatever": 5736,
      "Ġpref": 5737,
      "Ġafford": 5738,
      "anged": 5739,
      "ml": 5740,
      "ĠCivil": 5741,
      "ĠWil": 5742,
      "ĠNor": 5743,
      "Ġprecise": 5744,
      "Ġchain": 5745,
      "inder": 5746,
      "Ġsubsequ": 5747,
      "ĠâĢ¢": 5748,
      "IM": 5749,
      "ston": 5750,
      "ĠLand": 5751,
      "Ġpil": 5752,
      "Ġjourney": 5753,
      "erent": 5754,
      "Ġprove": 5755,
      "Ġboy": 5756,
      "Another": 5757,
      "Ġresidents": 5758,
      "erves": 5759,
      "Ġcatch": 5760,
      "Ġexchange": 5761,
      "Ġchemicals": 5762,
      "Ġvaccine": 5763,
      "Ġdiagnosis": 5764,
      "ĠLatin": 5765,
      "Ġapproaches": 5766,
      "apping": 5767,
      "asp": 5768,
      "ĠAlex": 5769,
      "Ġprotected": 5770,
      "Ġattend": 5771,
      "Ġgenerate": 5772,
      "ca": 5773,
      "ĠAnother": 5774,
      "ĠAM": 5775,
      "Ġratio": 5776,
      "UN": 5777,
      "ĠDet": 5778,
      "Ġvital": 5779,
      "De": 5780,
      "Ġconscious": 5781,
      "Ġhusband": 5782,
      "iform": 5783,
      "Ġimpossible": 5784,
      "uke": 5785,
      "ensus": 5786,
      "Ġconcentration": 5787,
      "hand": 5788,
      "ĠRussian": 5789,
      "ocratic": 5790,
      "ada": 5791,
      "rag": 5792,
      "Ġtun": 5793,
      "CT": 5794,
      "Ġpump": 5795,
      "Ġworse": 5796,
      "Ġagreement": 5797,
      "ints": 5798,
      "CE": 5799,
      "ĠSund": 5800,
      "zen": 5801,
      "itage": 5802,
      "Ġclosely": 5803,
      "ĠLearning": 5804,
      "Ġmaybe": 5805,
      "Ġfluid": 5806,
      "how": 5807,
      "Ġconvent": 5808,
      "osc": 5809,
      "Ġhunt": 5810,
      "Ġspeaking": 5811,
      "Ġrecy": 5812,
      "Ġvisible": 5813,
      "Ġfunding": 5814,
      "Ġtreatments": 5815,
      "olve": 5816,
      "Ġmarriage": 5817,
      "Ġdensity": 5818,
      "osal": 5819,
      "ĠInstead": 5820,
      "IR": 5821,
      "Ġcoffee": 5822,
      "Ġprinciple": 5823,
      "06": 5824,
      "Ġswitch": 5825,
      "Ġtwice": 5826,
      "top": 5827,
      "wo": 5828,
      "ĠBudd": 5829,
      "Ġcloud": 5830,
      "Ġchapter": 5831,
      "Ġmonitoring": 5832,
      "ĠTime": 5833,
      "Ġstudied": 5834,
      "Ġcrow": 5835,
      "verty": 5836,
      "Ġcontrolled": 5837,
      "Ġsan": 5838,
      "Ġadministration": 5839,
      "Ġjustice": 5840,
      "Ġtransition": 5841,
      "ĠFlorida": 5842,
      "Ġflight": 5843,
      "using": 5844,
      "Ġremaining": 5845,
      "Ġcrim": 5846,
      "ĠCharles": 5847,
      "ĠControl": 5848,
      "Ġsick": 5849,
      "Im": 5850,
      "Ġcustomer": 5851,
      "ĠCare": 5852,
      "Ġpoverty": 5853,
      "inet": 5854,
      "Bl": 5855,
      "42": 5856,
      "Ġgenerated": 5857,
      "athy": 5858,
      "Ġguarant": 5859,
      "Ġahead": 5860,
      "aser": 5861,
      "$.": 5862,
      "Ġenhance": 5863,
      "ĠExp": 5864,
      "Ġdecide": 5865,
      "racy": 5866,
      "ĠMedicine": 5867,
      "Ġnetworks": 5868,
      "Ġtells": 5869,
      "Ġfeelings": 5870,
      "Ġincl": 5871,
      "Ġamb": 5872,
      "Ġvaluable": 5873,
      "Ġflav": 5874,
      "Ġincreasingly": 5875,
      "ola": 5876,
      "Ġ@": 5877,
      "Ġcars": 5878,
      "Ġrestrict": 5879,
      "07": 5880,
      "Ġloved": 5881,
      "ĠCommit": 5882,
      "Ġpotentially": 5883,
      "Ġamazing": 5884,
      "Ġprocedures": 5885,
      "ĠDiv": 5886,
      "ĠUSA": 5887,
      "ums": 5888,
      "Ġtoxic": 5889,
      "uilding": 5890,
      "ĠLouis": 5891,
      "active": 5892,
      "ĠOh": 5893,
      "Ġspiritual": 5894,
      "ĠHenry": 5895,
      "ĠCatholic": 5896,
      "Gen": 5897,
      "fall": 5898,
      "ini": 5899,
      "43": 5900,
      "othe": 5901,
      "Ġmoist": 5902,
      "rd": 5903,
      "Ġsports": 5904,
      "Ġformal": 5905,
      "oster": 5906,
      "Ġleadership": 5907,
      "ĠMichael": 5908,
      "ĠHIV": 5909,
      "Ġinches": 5910,
      "Ġhandle": 5911,
      "ĠTor": 5912,
      "âĢĻ.": 5913,
      "gu": 5914,
      "Ġmatrix": 5915,
      "Ġdatabase": 5916,
      "Ġcenturies": 5917,
      "ĠRights": 5918,
      "ĠPacific": 5919,
      "agers": 5920,
      "Ġelev": 5921,
      "Ġtow": 5922,
      "Ġbroken": 5923,
      "Ġunlike": 5924,
      "Ġaccepted": 5925,
      "lo": 5926,
      "Ġsuffering": 5927,
      "ibilities": 5928,
      "',": 5929,
      "Ġnarrow": 5930,
      "ĠMiddle": 5931,
      "Ġfailed": 5932,
      "Ġbrown": 5933,
      "Ġrural": 5934,
      "ĠTem": 5935,
      "she": 5936,
      "Ġrefers": 5937,
      "Ġrank": 5938,
      "Ġreaders": 5939,
      "Ġplayer": 5940,
      "Ġassemb": 5941,
      "ads": 5942,
      "Ġperiods": 5943,
      "Ġvillage": 5944,
      "Ġinstruction": 5945,
      "Ġmode": 5946,
      "Ġreform": 5947,
      "Ġstring": 5948,
      "Not": 5949,
      "isp": 5950,
      "ĠSaf": 5951,
      "Ġban": 5952,
      "phone": 5953,
      "Ġsteel": 5954,
      "ĠForm": 5955,
      "Ġlatter": 5956,
      "ĠPeter": 5957,
      "Ġkm": 5958,
      "Ġcrucial": 5959,
      "Ġmuscles": 5960,
      "ato": 5961,
      "mary": 5962,
      "Ġdistingu": 5963,
      "ĠFrank": 5964,
      "ĠBat": 5965,
      "itud": 5966,
      "Ġplate": 5967,
      "ĠRussia": 5968,
      "ua": 5969,
      "ogue": 5970,
      "Ġvote": 5971,
      "ellect": 5972,
      "See": 5973,
      "Ġthr": 5974,
      "Ġforth": 5975,
      "while": 5976,
      "ĠRob": 5977,
      "Ġcas": 5978,
      "Ġruns": 5979,
      "alian": 5980,
      "Ġrecovery": 5981,
      "Read": 5982,
      "ĠKen": 5983,
      "antly": 5984,
      "Ġplays": 5985,
      "ĠWild": 5986,
      "ĠAp": 5987,
      "Ġgather": 5988,
      "Ġcapable": 5989,
      "icago": 5990,
      "Ġadvoc": 5991,
      "Ġrub": 5992,
      "Ġecosystem": 5993,
      "Ġprobability": 5994,
      "inations": 5995,
      "Ġassistance": 5996,
      "Ġpossess": 5997,
      "rants": 5998,
      "Ġtrad": 5999,
      "Since": 6000,
      "ĠDesign": 6001,
      "Ġfigures": 6002,
      "Can": 6003,
      "Ġfalse": 6004,
      "Ġscore": 6005,
      "ifies": 6006,
      "obe": 6007,
      "Ġsatisf": 6008,
      "Ġmanaged": 6009,
      "cher": 6010,
      "ĠWhe": 6011,
      "ache": 6012,
      "Ġdescription": 6013,
      "Ġcart": 6014,
      "fit": 6015,
      "Ġrecognize": 6016,
      "Ġcamera": 6017,
      "ĠBank": 6018,
      "Ġacceler": 6019,
      "Ġrepeated": 6020,
      "?\"": 6021,
      "08": 6022,
      "Ġprepare": 6023,
      "war": 6024,
      "ĠSuch": 6025,
      "yth": 6026,
      "Ġexpressed": 6027,
      "Ġimplic": 6028,
      "ĠBoard": 6029,
      "Ġitem": 6030,
      "Ġdistrict": 6031,
      "Ġimpacts": 6032,
      "Ġages": 6033,
      "ircraft": 6034,
      "Ġmassive": 6035,
      "Ġhouses": 6036,
      "Ġ500": 6037,
      "Ġcos": 6038,
      "âĢĺ": 6039,
      "Ġmillions": 6040,
      "Ġfoss": 6041,
      "box": 6042,
      "ĠEqu": 6043,
      "Ġgovernments": 6044,
      "Ġstored": 6045,
      "Don": 6046,
      "inn": 6047,
      "Ġopposite": 6048,
      "spec": 6049,
      "ĠOnly": 6050,
      "ĠMag": 6051,
      "ificial": 6052,
      "Ġsuitable": 6053,
      "sey": 6054,
      "Ġinterf": 6055,
      "eer": 6056,
      "ups": 6057,
      "Ġbear": 6058,
      "ĠFederal": 6059,
      "Ġlisten": 6060,
      "Ġbiggest": 6061,
      "Ġregularly": 6062,
      "Ġinfrastructure": 6063,
      "Ġelectron": 6064,
      "ĠCamp": 6065,
      "Ġsight": 6066,
      "Ġspaces": 6067,
      "lers": 6068,
      "Ġaccomp": 6069,
      "Ġunderstood": 6070,
      "ĠProv": 6071,
      "ĠKnow": 6072,
      "Ġoutcomes": 6073,
      "bf": 6074,
      "imens": 6075,
      "Ġfly": 6076,
      "Ġrapidly": 6077,
      "Ġminim": 6078,
      "Ġkil": 6079,
      "df": 6080,
      "Ġrevealed": 6081,
      "Ġprofessionals": 6082,
      "Ġannounced": 6083,
      "Ġdepos": 6084,
      "âĢī": 6085,
      "Ġshut": 6086,
      "Ġsuc": 6087,
      "Ġaffects": 6088,
      "obs": 6089,
      "Ġnaturally": 6090,
      "ĠLibrary": 6091,
      "anes": 6092,
      "ocation": 6093,
      "Ġextended": 6094,
      "rolog": 6095,
      "ansion": 6096,
      "Ġconsistent": 6097,
      "Ġhaz": 6098,
      "Ġcircumstances": 6099,
      "rite": 6100,
      "Ġentry": 6101,
      "09": 6102,
      "Ġchosen": 6103,
      "Ġwalking": 6104,
      "ĠNASA": 6105,
      "HO": 6106,
      "inity": 6107,
      "Ġcup": 6108,
      "Ġaward": 6109,
      "anguage": 6110,
      "ĠAdd": 6111,
      "Ġ75": 6112,
      "ĠRad": 6113,
      "ront": 6114,
      "stream": 6115,
      "comm": 6116,
      "Ġlessons": 6117,
      "Ġnormally": 6118,
      "ĠStat": 6119,
      "Ġvehicles": 6120,
      "Ġdecrease": 6121,
      "icious": 6122,
      "Ġrein": 6123,
      "Ġslowly": 6124,
      "ĠId": 6125,
      "ĠDise": 6126,
      "osh": 6127,
      "ĠBur": 6128,
      "Ġpossibility": 6129,
      "Ġsurf": 6130,
      "Ġagricultural": 6131,
      "Le": 6132,
      "79": 6133,
      "Ġclient": 6134,
      "Ġmetab": 6135,
      "Ġoffering": 6136,
      "Ġpool": 6137,
      "ĠLong": 6138,
      "Ġuns": 6139,
      "Ġmarried": 6140,
      "Ġthanks": 6141,
      "Ġoral": 6142,
      "Ġcompetition": 6143,
      "luding": 6144,
      "Ġdesire": 6145,
      "Ġstanding": 6146,
      "Ġplus": 6147,
      "Ġmoral": 6148,
      "Ġpus": 6149,
      "pat": 6150,
      "Ġcourses": 6151,
      "ĠMad": 6152,
      "example": 6153,
      "tering": 6154,
      "Ġnone": 6155,
      "Ġsuffer": 6156,
      "Ġdiscovery": 6157,
      "Ġchoices": 6158,
      "Ġpartner": 6159,
      "Ġbiological": 6160,
      "chen": 6161,
      "Ġelectronic": 6162,
      ".|": 6163,
      "Your": 6164,
      "Ġequivalent": 6165,
      "bar": 6166,
      "ĠWindows": 6167,
      "Ġsmooth": 6168,
      "Ġnurs": 6169,
      "raction": 6170,
      "Ġrid": 6171,
      "Ġwilling": 6172,
      "Ġtail": 6173,
      "02": 6174,
      "Ġacts": 6175,
      "ĠServices": 6176,
      "Other": 6177,
      "Ġphoto": 6178,
      "Ġremote": 6179,
      "chers": 6180,
      "itt": 6181,
      "burg": 6182,
      "Ġframe": 6183,
      "Ġdefine": 6184,
      "Ġnine": 6185,
      "Ġadvert": 6186,
      "Ġclients": 6187,
      "Ġdelivery": 6188,
      "tage": 6189,
      "Ġforget": 6190,
      "Ġnutrients": 6191,
      "Ġble": 6192,
      "roc": 6193,
      "ship": 6194,
      "ceived": 6195,
      "Ġalle": 6196,
      "BS": 6197,
      "Ġparallel": 6198,
      "Ġdedicated": 6199,
      "Ġconfidence": 6200,
      "Ġoriginally": 6201,
      "ĠMill": 6202,
      "Ġintroduction": 6203,
      "ML": 6204,
      "gebra": 6205,
      "Ġrelax": 6206,
      "Ġimplementation": 6207,
      "Ġproteins": 6208,
      "Int": 6209,
      "Ġaccounts": 6210,
      "Ġfacilit": 6211,
      "Ġinject": 6212,
      "igation": 6213,
      "Ġscene": 6214,
      "Ġvs": 6215,
      "Ġimmun": 6216,
      "Ġmovie": 6217,
      "Ġsharing": 6218,
      "Ġarrived": 6219,
      "Ġagency": 6220,
      "During": 6221,
      "Ġcircuit": 6222,
      "ĠSk": 6223,
      "41": 6224,
      "eper": 6225,
      "Ġwitness": 6226,
      "level": 6227,
      "ĠBre": 6228,
      "Ġnoise": 6229,
      "Ġgrav": 6230,
      "03": 6231,
      "Ġfabric": 6232,
      "ĠMath": 6233,
      "Ġphr": 6234,
      "Ġsensitive": 6235,
      "orough": 6236,
      "Ġearn": 6237,
      "Ġstem": 6238,
      "Ġlocations": 6239,
      "Ġserver": 6240,
      "irty": 6241,
      "aked": 6242,
      "Ġthousand": 6243,
      "ĠCap": 6244,
      "Ġends": 6245,
      "Ġlaunch": 6246,
      "Ġdescribes": 6247,
      "cknow": 6248,
      "Ġoccasion": 6249,
      "Ġscript": 6250,
      "Ġpig": 6251,
      "you": 6252,
      "cling": 6253,
      "Ġwestern": 6254,
      "Ġexists": 6255,
      "Ġstreet": 6256,
      "ĠOx": 6257,
      "ĠTreat": 6258,
      "ĠLab": 6259,
      "ĠVirginia": 6260,
      "Of": 6261,
      "Ġ}": 6262,
      "ifications": 6263,
      "Ġagencies": 6264,
      "ĠPsych": 6265,
      "Ġlaun": 6266,
      "ugh": 6267,
      "ala": 6268,
      "Ġmanufacturing": 6269,
      "night": 6270,
      "ĠTop": 6271,
      "Ġring": 6272,
      "ĠExper": 6273,
      "Ġfix": 6274,
      "Ġbattery": 6275,
      "Ġsupposed": 6276,
      "Ġreject": 6277,
      "def": 6278,
      "ĠStudies": 6279,
      "Ġsed": 6280,
      "ĠExpl": 6281,
      "Ġrepresented": 6282,
      "agues": 6283,
      "Ġourselves": 6284,
      "ĠSea": 6285,
      "ĠFacebook": 6286,
      "Ġconsumers": 6287,
      "Ġcomprehensive": 6288,
      "Ġaccident": 6289,
      "dule": 6290,
      "ĠNav": 6291,
      "Ġdiscrim": 6292,
      "Ġvac": 6293,
      "oviet": 6294,
      "Ġmissing": 6295,
      "Ġfashion": 6296,
      "mod": 6297,
      "ĠVis": 6298,
      "Ġachieved": 6299,
      "Ġextensive": 6300,
      ")(": 6301,
      "Ġmaintenance": 6302,
      "Ġsubstance": 6303,
      "bour": 6304,
      "igenous": 6305,
      "gent": 6306,
      "Ġcloser": 6307,
      "iration": 6308,
      "04": 6309,
      "Ġchart": 6310,
      "Ġcards": 6311,
      "ĠBrown": 6312,
      "Ġremark": 6313,
      "ittle": 6314,
      "requ": 6315,
      "Ġcolumn": 6316,
      "SS": 6317,
      "Ġclust": 6318,
      "Ġworldwide": 6319,
      "Ġtaste": 6320,
      "Ġ300": 6321,
      "rat": 6322,
      "Ġturns": 6323,
      "anta": 6324,
      "Ġsoldiers": 6325,
      "Ġguess": 6326,
      "Ġuniverse": 6327,
      "Ġintelligence": 6328,
      "Ġroutine": 6329,
      "ĠWhere": 6330,
      "Ġregional": 6331,
      "IA": 6332,
      "ano": 6333,
      "ĠNature": 6334,
      "ĠParis": 6335,
      "Ġmountain": 6336,
      "riting": 6337,
      "Ġcash": 6338,
      "Ġexperiments": 6339,
      "ĠAbout": 6340,
      "Ġcrops": 6341,
      "Ġproducing": 6342,
      "Ġroof": 6343,
      "Ġadequ": 6344,
      "Ġfinished": 6345,
      "Ġphotos": 6346,
      "gs": 6347,
      "Ġcraft": 6348,
      "anda": 6349,
      "ĠThose": 6350,
      "liam": 6351,
      "Ġteams": 6352,
      "Ġmixed": 6353,
      "ĠAddition": 6354,
      "Ġfold": 6355,
      "then": 6356,
      "Ġframework": 6357,
      "Ġcardi": 6358,
      "Ġplot": 6359,
      "Ġcurriculum": 6360,
      "ena": 6361,
      "BN": 6362,
      "En": 6363,
      "Ġindu": 6364,
      "orph": 6365,
      "ĠCommittee": 6366,
      "htt": 6367,
      "ypes": 6368,
      "Ġsky": 6369,
      "ĠBig": 6370,
      "Ġenable": 6371,
      "69": 6372,
      "ĠConstitution": 6373,
      "cest": 6374,
      "Ġcolour": 6375,
      "87": 6376,
      "Ġparameters": 6377,
      "Ġflo": 6378,
      "Ġblow": 6379,
      "Ġunknown": 6380,
      "estyle": 6381,
      "Ġcreates": 6382,
      "Ġfruits": 6383,
      "Ġfeedback": 6384,
      "izer": 6385,
      "Ġtiny": 6386,
      "Ġputting": 6387,
      "onday": 6388,
      "ĠColumb": 6389,
      "Ġimproving": 6390,
      "Ġmarketing": 6391,
      "otion": 6392,
      "ĠMa": 6393,
      "Ġmovements": 6394,
      "67": 6395,
      "Ġfunds": 6396,
      "Ġharvest": 6397,
      "ĠIll": 6398,
      "ribe": 6399,
      "Ġprotocol": 6400,
      "Ġequations": 6401,
      "stein": 6402,
      "ĠExt": 6403,
      "kins": 6404,
      "Ġdomain": 6405,
      "Ġfurn": 6406,
      "Ġdiversity": 6407,
      "Ġliver": 6408,
      "Ġasking": 6409,
      "sm": 6410,
      "Ġconven": 6411,
      "agram": 6412,
      "Ġ1999": 6413,
      "Ġera": 6414,
      "ĠPub": 6415,
      "ĠLabor": 6416,
      "Ġshift": 6417,
      "ĠOpen": 6418,
      "Ġdepartment": 6419,
      "CA": 6420,
      "Ġended": 6421,
      "ĠChicago": 6422,
      "ĠCanadian": 6423,
      "ĠGlobal": 6424,
      "Ġspending": 6425,
      "Ġbehaviour": 6426,
      "Ġengage": 6427,
      "Ġcomputers": 6428,
      "Ġquarter": 6429,
      "Ġdiverse": 6430,
      "Ġhighlight": 6431,
      "bur": 6432,
      "Ġcommitted": 6433,
      "Ġadopted": 6434,
      "Ġcognitive": 6435,
      "Ġangle": 6436,
      "Ġbath": 6437,
      "ĠVict": 6438,
      "ĠAP": 6439,
      "ita": 6440,
      "Ġsatell": 6441,
      "Ġforg": 6442,
      "ĠYet": 6443,
      "Ġdeaths": 6444,
      "Ġmoon": 6445,
      "Äģ": 6446,
      "Ġlimits": 6447,
      "First": 6448,
      "Ġnecessarily": 6449,
      "Ġtwenty": 6450,
      "Ġpoet": 6451,
      "Ġcritic": 6452,
      "ĠWood": 6453,
      "organ": 6454,
      "ĠEmp": 6455,
      "Dr": 6456,
      "being": 6457,
      "Ġneither": 6458,
      "Ġhero": 6459,
      "class": 6460,
      "born": 6461,
      "()": 6462,
      "Ġcomparison": 6463,
      "59": 6464,
      "Ġtoler": 6465,
      "Ġtrouble": 6466,
      "ĠIP": 6467,
      "elled": 6468,
      "Ġrelation": 6469,
      "RA": 6470,
      "ĠSuper": 6471,
      "Ġunp": 6472,
      "Ġcarefully": 6473,
      "Ġyield": 6474,
      "EP": 6475,
      "ora": 6476,
      "Ġ32": 6477,
      "lements": 6478,
      "Ġjump": 6479,
      "Ġic": 6480,
      "ĠRo": 6481,
      "Ġwriter": 6482,
      "Ġmit": 6483,
      "Ġ?": 6484,
      "Ġaircraft": 6485,
      "oral": 6486,
      "ascular": 6487,
      "ĠSing": 6488,
      "Ġshell": 6489,
      "ĠJul": 6490,
      "ĠFriday": 6491,
      "een": 6492,
      "Ġmac": 6493,
      "Ġsupplement": 6494,
      "azine": 6495,
      "Ġstages": 6496,
      "Ġinner": 6497,
      "Ġastron": 6498,
      "riend": 6499,
      "liament": 6500,
      "ĠReport": 6501,
      "ocracy": 6502,
      "Ġjoined": 6503,
      "Me": 6504,
      "Ġhealthcare": 6505,
      "Ġneck": 6506,
      "Ġhoriz": 6507,
      "Ġresolution": 6508,
      "Ġskill": 6509,
      "han": 6510,
      "Ġmarked": 6511,
      "rt": 6512,
      "lets": 6513,
      "Ġdebt": 6514,
      "mic": 6515,
      "ĠSunday": 6516,
      "isters": 6517,
      "Ġboost": 6518,
      "kes": 6519,
      "Ġminute": 6520,
      "Ġinstructions": 6521,
      "eless": 6522,
      "oves": 6523,
      "Ġincred": 6524,
      "Ġwaves": 6525,
      "Ġabund": 6526,
      "Ġdepart": 6527,
      "Su": 6528,
      "Ġfoundation": 6529,
      "Ġnewsp": 6530,
      "Ġdust": 6531,
      "pet": 6532,
      "Ġsuccessfully": 6533,
      "ĠAngel": 6534,
      "hemical": 6535,
      "Ġpregnancy": 6536,
      "Ġpercentage": 6537,
      "tic": 6538,
      "âĢĻ,": 6539,
      "Ġdecade": 6540,
      "cules": 6541,
      "Ġgrew": 6542,
      "=\\": 6543,
      "Ġagriculture": 6544,
      "Ġtick": 6545,
      "teries": 6546,
      "Ġimper": 6547,
      "Ã¼": 6548,
      "OC": 6549,
      "ĠColor": 6550,
      "Ġlandscape": 6551,
      "ĠSet": 6552,
      "Ġreplaced": 6553,
      "ĠSoviet": 6554,
      "ä¸": 6555,
      "Ġid": 6556,
      "--------": 6557,
      "Ġmyth": 6558,
      "ĠMer": 6559,
      "####": 6560,
      "inally": 6561,
      "fortunately": 6562,
      "ĠSouthern": 6563,
      "Ġarrange": 6564,
      "Ġhabitat": 6565,
      "Ġunable": 6566,
      "âĪĴ": 6567,
      "Ġcm": 6568,
      "Ġstruggle": 6569,
      "Ġbread": 6570,
      "Ġrespectively": 6571,
      "Ġprincip": 6572,
      "Ġholding": 6573,
      "coming": 6574,
      "$,": 6575,
      "icians": 6576,
      "Ġcircle": 6577,
      "ĠGal": 6578,
      "ounce": 6579,
      "ults": 6580,
      "Ġmarkets": 6581,
      "Ġdecline": 6582,
      "Ġsupports": 6583,
      "ban": 6584,
      "ĠProfessor": 6585,
      "reland": 6586,
      "imer": 6587,
      "Ġderived": 6588,
      "ested": 6589,
      "Ġscholars": 6590,
      "Ġestimate": 6591,
      "Ġnarr": 6592,
      "Ġacknow": 6593,
      "Ġsole": 6594,
      "olester": 6595,
      "wing": 6596,
      "Ġmechanism": 6597,
      "Ġinstitution": 6598,
      "Ġcouldn": 6599,
      "Ġleaf": 6600,
      "ĠHistor": 6601,
      "Ġsentence": 6602,
      "Ġsurvival": 6603,
      "ĠValley": 6604,
      "Ġguidelines": 6605,
      "Ġdiscipl": 6606,
      "Ġsupporting": 6607,
      "Ġgreatly": 6608,
      "ĠChristmas": 6609,
      "yer": 6610,
      "Ġprogramming": 6611,
      "Ġcutting": 6612,
      "Ġuniversity": 6613,
      "Ġgal": 6614,
      "Ġbeauty": 6615,
      "Ġlies": 6616,
      "iology": 6617,
      "vironments": 6618,
      "Ġcomposition": 6619,
      "Ġstands": 6620,
      "ĠYear": 6621,
      "Ġholds": 6622,
      "Ġproduces": 6623,
      "Ġmedications": 6624,
      "Ġauthorities": 6625,
      "Ġspok": 6626,
      "Ġcategory": 6627,
      "Ġsecondary": 6628,
      "Ġintellect": 6629,
      "Ġattached": 6630,
      "icate": 6631,
      "Ġevening": 6632,
      "omach": 6633,
      "ĠScott": 6634,
      "umes": 6635,
      "Ġelection": 6636,
      "Ġfunctional": 6637,
      "Ġhur": 6638,
      "Ġdelay": 6639,
      "Ġcorner": 6640,
      "Ġworry": 6641,
      "illa": 6642,
      "Ġbot": 6643,
      "ĠParty": 6644,
      "OM": 6645,
      "Ġshoot": 6646,
      "ican": 6647,
      "ĠCy": 6648,
      "ulin": 6649,
      "ĠPers": 6650,
      "Ġinteraction": 6651,
      "Ġpositions": 6652,
      "Ġdoctors": 6653,
      "Ġentered": 6654,
      "Ġseconds": 6655,
      "ometry": 6656,
      "Ġmine": 6657,
      "ĠTom": 6658,
      "Ġcrime": 6659,
      "ĠJoseph": 6660,
      "Ġindicates": 6661,
      "soft": 6662,
      "Ġpapers": 6663,
      "arn": 6664,
      "ĠRichard": 6665,
      "icit": 6666,
      "Ġmanif": 6667,
      "Ġvector": 6668,
      "Ġreader": 6669,
      "Ġmuseum": 6670,
      "Ġmachines": 6671,
      "ih": 6672,
      "ĠTimes": 6673,
      "Ġ1998": 6674,
      "was": 6675,
      "ĠThrough": 6676,
      "inking": 6677,
      "zil": 6678,
      "Ġcomfortable": 6679,
      "Ġclub": 6680,
      "uter": 6681,
      "ĠAcc": 6682,
      "ĠDiff": 6683,
      "Ġbrings": 6684,
      "ĠSil": 6685,
      "Ġstudying": 6686,
      "Ġoblig": 6687,
      "itative": 6688,
      "ĠPet": 6689,
      "bridge": 6690,
      "ĠAustralian": 6691,
      "ĠAND": 6692,
      "Ġath": 6693,
      "usal": 6694,
      "Ġplenty": 6695,
      "Post": 6696,
      "Ġconsumer": 6697,
      "Ġwine": 6698,
      "Ġarray": 6699,
      "olesterol": 6700,
      "Ġmatters": 6701,
      "Ġorganized": 6702,
      "68": 6703,
      "uts": 6704,
      "Ġinvent": 6705,
      "itan": 6706,
      "Ġempt": 6707,
      "stone": 6708,
      "ĠScient": 6709,
      "Ġsession": 6710,
      "Ġwarming": 6711,
      "ether": 6712,
      "Ġchick": 6713,
      "ENT": 6714,
      "Stud": 6715,
      "Ġimmediate": 6716,
      "Ġdress": 6717,
      "ribed": 6718,
      "Ġconversation": 6719,
      "orses": 6720,
      "Ġagreed": 6721,
      "Ġowner": 6722,
      "Ġparticipate": 6723,
      "Ġdrawing": 6724,
      "Ġfighting": 6725,
      "pi": 6726,
      "Ġinjuries": 6727,
      "aturday": 6728,
      "aming": 6729,
      "Ġcontained": 6730,
      "Ġcompr": 6731,
      "Ġstable": 6732,
      "ĠEnd": 6733,
      "cons": 6734,
      "orous": 6735,
      "Ġplane": 6736,
      "Ġsurvive": 6737,
      "Ġsignals": 6738,
      "Ġadministr": 6739,
      "hop": 6740,
      "Ġappeal": 6741,
      "Ġsucceed": 6742,
      "Ġregulations": 6743,
      "Ġconfig": 6744,
      "Ġtight": 6745,
      "Ġtea": 6746,
      "Ġdomin": 6747,
      "Ġyounger": 6748,
      "mes": 6749,
      "ĠCat": 6750,
      "Ġwouldn": 6751,
      "Ġpermanent": 6752,
      "Ġment": 6753,
      "Ġhousing": 6754,
      "ĠWho": 6755,
      "Ġvel": 6756,
      "Ġassume": 6757,
      "Ġfertil": 6758,
      "ĠCheck": 6759,
      "Ġultimately": 6760,
      "oding": 6761,
      "Ġdating": 6762,
      "Ġevaluation": 6763,
      "Ġdebate": 6764,
      "Ġneuro": 6765,
      "CL": 6766,
      "Ġpowers": 6767,
      "Ã¶": 6768,
      "gers": 6769,
      "Ġraw": 6770,
      "Ġinflammation": 6771,
      "CD": 6772,
      "normal": 6773,
      "ĠNov": 6774,
      "Ġregul": 6775,
      "Ġdifficulty": 6776,
      "Ġprevention": 6777,
      "Or": 6778,
      "Ġpip": 6779,
      "Ġ1980": 6780,
      "ĠHaw": 6781,
      "Ġfasc": 6782,
      "Ġalgorithm": 6783,
      "Ġmagnetic": 6784,
      "weight": 6785,
      "ĠAS": 6786,
      "ĠNote": 6787,
      "ĠPan": 6788,
      "Ġtransmission": 6789,
      "zed": 6790,
      "ĠCommon": 6791,
      "Ġcab": 6792,
      "cd": 6793,
      "ugg": 6794,
      "nect": 6795,
      "alls": 6796,
      "ï¼": 6797,
      "ĠEnvironmental": 6798,
      "Ġrecip": 6799,
      "teen": 6800,
      "Ġswim": 6801,
      "Comp": 6802,
      "ĠBusiness": 6803,
      "ĠCa": 6804,
      "Ġeld": 6805,
      "ĠIreland": 6806,
      "osph": 6807,
      "ivered": 6808,
      "ĠTake": 6809,
      "Ġkne": 6810,
      "Ġpackage": 6811,
      "Ġdefinitely": 6812,
      "ighter": 6813,
      "Ġconstitution": 6814,
      "Ġtank": 6815,
      "abled": 6816,
      "ĠAdminist": 6817,
      "list": 6818,
      "Ùİ": 6819,
      "Ġdoi": 6820,
      "ĠFind": 6821,
      "Ġsettings": 6822,
      "Ġmedication": 6823,
      "ifts": 6824,
      "EO": 6825,
      "idential": 6826,
      "Ġphotograph": 6827,
      "uracy": 6828,
      "ulty": 6829,
      "Ġsyndrome": 6830,
      "yles": 6831,
      "Ġresponses": 6832,
      "igan": 6833,
      "hered": 6834,
      "Ġallerg": 6835,
      "ropical": 6836,
      "print": 6837,
      "Ġfourth": 6838,
      "Ġaer": 6839,
      "ctic": 6840,
      "Ġmaps": 6841,
      "Ġpresentation": 6842,
      "Ġinfected": 6843,
      "roduction": 6844,
      "Ġcorn": 6845,
      "asy": 6846,
      "rary": 6847,
      "Ġdollars": 6848,
      "Ġissued": 6849,
      "Ġtroops": 6850,
      "quar": 6851,
      "Ġsomewhat": 6852,
      "Ġdental": 6853,
      "Ġusual": 6854,
      "Rec": 6855,
      "DP": 6856,
      "Ġbones": 6857,
      "Ġwonderful": 6858,
      "Ġpra": 6859,
      "Ġphysics": 6860,
      "bet": 6861,
      "Ġcentre": 6862,
      "Ġtall": 6863,
      "Ġsod": 6864,
      "ella": 6865,
      "Ġrepair": 6866,
      "ĠCarolina": 6867,
      "Ġconcrete": 6868,
      "Ġconsidering": 6869,
      "Ġestimates": 6870,
      "Ġarrest": 6871,
      "Ġimprovement": 6872,
      "Ġobservations": 6873,
      "Ġveter": 6874,
      "ĠWik": 6875,
      "iability": 6876,
      "ĠHave": 6877,
      "hist": 6878,
      "ĠBill": 6879,
      "Ġrestaur": 6880,
      "63": 6881,
      "uma": 6882,
      "isk": 6883,
      "Ġancest": 6884,
      "Yes": 6885,
      "Ġstre": 6886,
      "Ġton": 6887,
      "ĠDig": 6888,
      "rive": 6889,
      "action": 6890,
      "Ġbeneficial": 6891,
      "Ġlie": 6892,
      "Ġturning": 6893,
      "Ġartist": 6894,
      "Ġtrained": 6895,
      "Ġexplanation": 6896,
      "Ġexclus": 6897,
      "ĠAcademy": 6898,
      "Ġlegs": 6899,
      "Ġcultiv": 6900,
      "Ġrealize": 6901,
      "Then": 6902,
      "inction": 6903,
      "Ġhole": 6904,
      "Ġdivision": 6905,
      "Ġ;": 6906,
      "Ġsubs": 6907,
      "Ġthrow": 6908,
      "ĠPlay": 6909,
      "Pe": 6910,
      "Ġhydrogen": 6911,
      "ĠRome": 6912,
      "Ġdefense": 6913,
      "Ġteen": 6914,
      "Ġenvironments": 6915,
      "Ġprompt": 6916,
      "ĠNations": 6917,
      "Ġwhereas": 6918,
      "Ġrig": 6919,
      "aud": 6920,
      "},": 6921,
      "acts": 6922,
      "iah": 6923,
      "Ġemployment": 6924,
      "Ġconference": 6925,
      "Ġinstalled": 6926,
      "Ġproceed": 6927,
      "EE": 6928,
      "ĠDirector": 6929,
      "American": 6930,
      "ga": 6931,
      "58": 6932,
      "Ġfacility": 6933,
      "Every": 6934,
      "57": 6935,
      "rine": 6936,
      "Ġrising": 6937,
      "icide": 6938,
      "Ġcovers": 6939,
      "lines": 6940,
      "Ġbag": 6941,
      "Ġthee": 6942,
      "utch": 6943,
      "ĠMain": 6944,
      "Figure": 6945,
      "ĠĠĠ": 6946,
      "Ġfounded": 6947,
      "Ġlect": 6948,
      "Ġunus": 6949,
      "Ġmamm": 6950,
      "Ġmolecules": 6951,
      "Ġunderlying": 6952,
      "Ġchildhood": 6953,
      "erals": 6954,
      "Ġjudge": 6955,
      "ĠRock": 6956,
      "Ġhypothes": 6957,
      "Ġcaught": 6958,
      "ĠGard": 6959,
      "Ġborder": 6960,
      "Ġsurve": 6961,
      "ployment": 6962,
      "called": 6963,
      "Ġphilosophy": 6964,
      "Ġ^": 6965,
      "Note": 6966,
      "Ġpolitics": 6967,
      "ĠBab": 6968,
      "Ġconventional": 6969,
      "ĠSpecial": 6970,
      "such": 6971,
      "throp": 6972,
      "Ġdrawn": 6973,
      "Ġzone": 6974,
      "Ġobjective": 6975,
      "ĠIII": 6976,
      "pm": 6977,
      "asive": 6978,
      "earing": 6979,
      "Ġvirtual": 6980,
      "Ġcapture": 6981,
      "ĠWed": 6982,
      "ĠItaly": 6983,
      "rene": 6984,
      "ĠWord": 6985,
      "Ġsupplies": 6986,
      "Ġobst": 6987,
      "Ã³": 6988,
      "Ġsigned": 6989,
      "Ġpush": 6990,
      "Ġdriver": 6991,
      "ctive": 6992,
      "Ġwildlife": 6993,
      "Ġarchitecture": 6994,
      "Over": 6995,
      "Ġlifestyle": 6996,
      "ommod": 6997,
      "App": 6998,
      "VID": 6999,
      "Ġhonor": 7000,
      "Ġvan": 7001,
      "Ġharmful": 7002,
      "Ġfewer": 7003,
      "asters": 7004,
      "Ġbreath": 7005,
      "Ġwaiting": 7006,
      "ĠCur": 7007,
      "Ġhaven": 7008,
      "Ġstood": 7009,
      "ĠHill": 7010,
      "Ġvoltage": 7011,
      "Ġbio": 7012,
      "ĠÂ£": 7013,
      "ï¿": 7014,
      "Ġuncertain": 7015,
      "Ġlands": 7016,
      "Ġflag": 7017,
      "ĠConst": 7018,
      "ĠPenn": 7019,
      "ĠMartin": 7020,
      "Ġbrows": 7021,
      "ĠPract": 7022,
      "otal": 7023,
      "Ġlaunched": 7024,
      "ORD": 7025,
      "Ġartists": 7026,
      "Ġdefe": 7027,
      "igma": 7028,
      "Ġimagine": 7029,
      "Ġdestroyed": 7030,
      "56": 7031,
      "ĠTO": 7032,
      "display": 7033,
      "Ġmand": 7034,
      "ĠRoad": 7035,
      "Ġapproved": 7036,
      "ĠRoyal": 7037,
      "Ġforests": 7038,
      "Ġpanel": 7039,
      "ĠCre": 7040,
      "outs": 7041,
      "esity": 7042,
      "azon": 7043,
      "98": 7044,
      "Ġvideos": 7045,
      "Ġboys": 7046,
      "Once": 7047,
      "ĠStar": 7048,
      "ĠList": 7049,
      "ĠKeep": 7050,
      "ĠAdv": 7051,
      "rooms": 7052,
      "Ġsheet": 7053,
      "ĠMrs": 7054,
      "Ġshock": 7055,
      "Ġdefault": 7056,
      "Ġdesigns": 7057,
      "Ġmarine": 7058,
      "bing": 7059,
      "Ġcolleagues": 7060,
      "esides": 7061,
      "Ġcompare": 7062,
      "Ġstomach": 7063,
      "Ġpit": 7064,
      "Ġepis": 7065,
      "Ġsenior": 7066,
      "Ġquiet": 7067,
      "Ġpassing": 7068,
      "ĠMel": 7069,
      "ĠMult": 7070,
      "Ġgap": 7071,
      "Ġ36": 7072,
      "Ġ1970": 7073,
      "Ġbeat": 7074,
      "Ġmild": 7075,
      "Ġantibiot": 7076,
      "sts": 7077,
      "Ġconnections": 7078,
      "Ġfiber": 7079,
      "Ġtransportation": 7080,
      "ĠJo": 7081,
      "Ġbutton": 7082,
      "Ġherself": 7083,
      "Ġcommunicate": 7084,
      "Ġroute": 7085,
      "Ġexpansion": 7086,
      "ĠDistrict": 7087,
      "Ġmeal": 7088,
      "Get": 7089,
      "Ġsitting": 7090,
      "Ġcategories": 7091,
      "itudes": 7092,
      "ï¿½": 7093,
      "just": 7094,
      "riers": 7095,
      "Ġcryst": 7096,
      "Ġreceiving": 7097,
      "iture": 7098,
      "Ġknowing": 7099,
      "Ġinvolving": 7100,
      "ounded": 7101,
      "Ġeditor": 7102,
      "Ġbutter": 7103,
      "ĠStudy": 7104,
      "Ġtheme": 7105,
      "ictionary": 7106,
      "Ġped": 7107,
      "Ġconclusion": 7108,
      "ĠGrand": 7109,
      "Ġlayers": 7110,
      "ursday": 7111,
      "Ġdefend": 7112,
      "Ġcounty": 7113,
      "Ġnearby": 7114,
      "eness": 7115,
      "Ġreliable": 7116,
      "TER": 7117,
      "Ġdesired": 7118,
      "Ġchallenging": 7119,
      "ourage": 7120,
      "Ġtut": 7121,
      "rovers": 7122,
      "Ġspin": 7123,
      "Ed": 7124,
      "Ġinsert": 7125,
      "Ġdelivered": 7126,
      "Ġstrict": 7127,
      "Ġaccum": 7128,
      "Ġorient": 7129,
      "Ġbridge": 7130,
      "Ġsections": 7131,
      "Ġterror": 7132,
      "ĠEss": 7133,
      "Ġmeasurement": 7134,
      "Ġmeasurements": 7135,
      "ĠNatural": 7136,
      "Ġofficers": 7137,
      "Ġschedule": 7138,
      "sub": 7139,
      "ĠCult": 7140,
      "Ġethnic": 7141,
      "Ġseeking": 7142,
      "Ġrelief": 7143,
      "Ġpersist": 7144,
      "Ġadm": 7145,
      "ixture": 7146,
      "ĠPo": 7147,
      "Ġfulf": 7148,
      "ĠMS": 7149,
      "Last": 7150,
      "ĠCreat": 7151,
      "ĠScot": 7152,
      "Ġthank": 7153,
      "Ġusage": 7154,
      "Ġintake": 7155,
      "Ġ1997": 7156,
      "Ġintervention": 7157,
      "Ġoperate": 7158,
      "Ġnegot": 7159,
      "Med": 7160,
      "Ġentertain": 7161,
      "Ġille": 7162,
      "Ġsale": 7163,
      "52": 7164,
      "ĠLib": 7165,
      "Well": 7166,
      "Ġintegrated": 7167,
      "Ġblocks": 7168,
      "Ġfro": 7169,
      "oving": 7170,
      "Ġevil": 7171,
      "Ġaccessible": 7172,
      "Ġrecognition": 7173,
      "ishment": 7174,
      "Ġlegislation": 7175,
      "Ġmm": 7176,
      "Ġran": 7177,
      "Ġfairly": 7178,
      "ailed": 7179,
      "ĠGeorg": 7180,
      "Ġinhab": 7181,
      "ĠEth": 7182,
      "ĠNorthern": 7183,
      "Ġthorough": 7184,
      "Ġgent": 7185,
      "Ġerrors": 7186,
      "scale": 7187,
      "Ġautomatically": 7188,
      "uesday": 7189,
      "Ġdemonstrate": 7190,
      "ĠBC": 7191,
      "Ġmathematics": 7192,
      "Ġbanks": 7193,
      "Ġrose": 7194,
      "heast": 7195,
      "hent": 7196,
      "ĠCommunity": 7197,
      "ading": 7198,
      "ĠClin": 7199,
      "Ġbringing": 7200,
      "sq": 7201,
      "Ġsplit": 7202,
      "Ġmessages": 7203,
      "ĠBefore": 7204,
      "mathrm": 7205,
      "Ġperm": 7206,
      "Ġemotions": 7207,
      "aria": 7208,
      "Ġprev": 7209,
      "umps": 7210,
      "ĠFamily": 7211,
      "Ġguard": 7212,
      "ĠOnline": 7213,
      "ĠAccess": 7214,
      "andon": 7215,
      "Ġconstantly": 7216,
      "Ġingredients": 7217,
      "ĠSciences": 7218,
      "ĠâĪ": 7219,
      "Ġstrongly": 7220,
      "rance": 7221,
      "ĠOper": 7222,
      "bles": 7223,
      "Ġremind": 7224,
      "gments": 7225,
      "sis": 7226,
      "Ġsport": 7227,
      "Ġod": 7228,
      "Ġships": 7229,
      "ĠISBN": 7230,
      "sell": 7231,
      "ĠSecurity": 7232,
      "$\\": 7233,
      "Ġmoves": 7234,
      "onym": 7235,
      "fish": 7236,
      "door": 7237,
      "Even": 7238,
      "%)": 7239,
      "nov": 7240,
      "Ġlaboratory": 7241,
      "Ġbigger": 7242,
      "ucky": 7243,
      "ls": 7244,
      "Ġadvent": 7245,
      "Ġmanager": 7246,
      "ĠGuide": 7247,
      "Ġdistributed": 7248,
      "eers": 7249,
      "hma": 7250,
      "OW": 7251,
      "pling": 7252,
      "utation": 7253,
      "ĠVictor": 7254,
      "ĠJac": 7255,
      "ĠNetwork": 7256,
      "Am": 7257,
      "Ġindicated": 7258,
      "Ġcomplicated": 7259,
      "begin": 7260,
      "Ġbranch": 7261,
      "Ġcorresponding": 7262,
      "Ġtransp": 7263,
      "Ġserving": 7264,
      "Ġrepresentation": 7265,
      "swe": 7266,
      "Ġcholesterol": 7267,
      "Ġaccuracy": 7268,
      "ani": 7269,
      "Ġundert": 7270,
      "Ġcontrols": 7271,
      "Ġrefuge": 7272,
      "Ġquantum": 7273,
      "Ġwatching": 7274,
      "Ġmerely": 7275,
      "Ġcalling": 7276,
      "Ġpron": 7277,
      "Ġpainting": 7278,
      "ĠItalian": 7279,
      "ĠDoes": 7280,
      "Ġdanger": 7281,
      "mathbf": 7282,
      "53": 7283,
      "Ġchannel": 7284,
      "Ġhabits": 7285,
      "anches": 7286,
      "Ġeveryday": 7287,
      "Ġmechanisms": 7288,
      "indu": 7289,
      "Ġinhib": 7290,
      "ĠWall": 7291,
      "Ġsilver": 7292,
      "forcement": 7293,
      "Ġagents": 7294,
      "Ġblind": 7295,
      "Ġinvestigation": 7296,
      "ĠFort": 7297,
      "Ġexplo": 7298,
      "ĠVer": 7299,
      "erior": 7300,
      "May": 7301,
      "Ġdecor": 7302,
      "craft": 7303,
      "54": 7304,
      "Ġrent": 7305,
      "Ġstatements": 7306,
      "MP": 7307,
      "ĠBrazil": 7308,
      "ioxide": 7309,
      "51": 7310,
      "Ø§": 7311,
      "ĠIrish": 7312,
      "Ġescape": 7313,
      "car": 7314,
      "Ġsacr": 7315,
      "Ġlock": 7316,
      "ocity": 7317,
      "Ġlaid": 7318,
      "ĠDisease": 7319,
      "Ġinteractions": 7320,
      "roud": 7321,
      "Ġbreathing": 7322,
      "yr": 7323,
      "Ġske": 7324,
      "ĠMethod": 7325,
      "Ġwithd": 7326,
      "Ġvessels": 7327,
      "Ġfilter": 7328,
      "84": 7329,
      "Ġwindows": 7330,
      "Ġdemonstrated": 7331,
      "Ġanywhere": 7332,
      "Ġfer": 7333,
      "Ġvisitors": 7334,
      "ĠMonday": 7335,
      "ĠNon": 7336,
      "Ġordered": 7337,
      "Ġcultures": 7338,
      "Ġongoing": 7339,
      "Ġfinish": 7340,
      "ĠRom": 7341,
      "Ġgro": 7342,
      "ipedia": 7343,
      "Ġagent": 7344,
      "this": 7345,
      "Ġenemy": 7346,
      "Ġcommission": 7347,
      "ĠSpain": 7348,
      "ureau": 7349,
      "making": 7350,
      "ĠBul": 7351,
      "Ã¢": 7352,
      "ĠYoung": 7353,
      "Ġfacing": 7354,
      "61": 7355,
      "ĠâĨ": 7356,
      "Ġcleaning": 7357,
      "ĠDou": 7358,
      "Per": 7359,
      "Ġelectro": 7360,
      "Ġreactions": 7361,
      "displaystyle": 7362,
      "ĠOcean": 7363,
      "Please": 7364,
      "Ġmembr": 7365,
      "Ġfu": 7366,
      "onds": 7367,
      "Ġcriminal": 7368,
      "ĠSecret": 7369,
      "essions": 7370,
      "Ġlegisl": 7371,
      "Ġfeeding": 7372,
      "Ġexamine": 7373,
      "Â®": 7374,
      "rox": 7375,
      "62": 7376,
      "Ġstores": 7377,
      "fast": 7378,
      "aning": 7379,
      "ograp": 7380,
      "ĠCancer": 7381,
      "Ġfossil": 7382,
      "ĠBu": 7383,
      "Ġdisturb": 7384,
      "%.": 7385,
      "Ġevaluate": 7386,
      "eries": 7387,
      "ptions": 7388,
      "Ġresulted": 7389,
      "ĠLook": 7390,
      "Ġstopped": 7391,
      "ĠDar": 7392,
      "Ġpreval": 7393,
      "ĠHoly": 7394,
      "73": 7395,
      "istical": 7396,
      "Ġemployed": 7397,
      "Ġassociation": 7398,
      "ogether": 7399,
      "aph": 7400,
      "everal": 7401,
      "reens": 7402,
      "Ġacids": 7403,
      "Ġclar": 7404,
      "71": 7405,
      "herent": 7406,
      "Ġpassion": 7407,
      "ĠIT": 7408,
      "Ġfract": 7409,
      "Ġpublication": 7410,
      "Ġ1996": 7411,
      "ĠSat": 7412,
      "Ġcorrel": 7413,
      "Ġorders": 7414,
      "AG": 7415,
      "Ġhem": 7416,
      "Ġrhy": 7417,
      "Ġpreparation": 7418,
      "Because": 7419,
      "ĠYes": 7420,
      "Ġcrew": 7421,
      "Ġcong": 7422,
      ".'": 7423,
      "Ġcompounds": 7424,
      "ĠSup": 7425,
      "Ġoutcome": 7426,
      "Ġtelevision": 7427,
      "ĠTim": 7428,
      "ĠSand": 7429,
      "Ġfellow": 7430,
      "va": 7431,
      "ĠDown": 7432,
      "ĠTre": 7433,
      "ĠFire": 7434,
      "Lear": 7435,
      "ĠStr": 7436,
      "oven": 7437,
      "mail": 7438,
      "isco": 7439,
      "Ġneighborhood": 7440,
      "ette": 7441,
      "ĠDen": 7442,
      "ĠAT": 7443,
      "inson": 7444,
      "ĠAL": 7445,
      "Ġengaged": 7446,
      "Ġcoverage": 7447,
      "ĠAI": 7448,
      "ĠObama": 7449,
      "Ġmeth": 7450,
      "ĠMoreover": 7451,
      "Ġaccommod": 7452,
      "ocy": 7453,
      "etime": 7454,
      "Ġposts": 7455,
      "ĠÂł": 7456,
      "Ġ1995": 7457,
      "ĠProp": 7458,
      "Ġconfirmed": 7459,
      "Ġseat": 7460,
      "ĠLar": 7461,
      "Ġtrials": 7462,
      "Ġvictims": 7463,
      "Ġtables": 7464,
      "plete": 7465,
      "hav": 7466,
      "Ġgenerations": 7467,
      "ĠWorks": 7468,
      "Ġpounds": 7469,
      "Ġgluc": 7470,
      "ĠHy": 7471,
      "oston": 7472,
      "raq": 7473,
      "Ġsched": 7474,
      "hesis": 7475,
      "ĠFund": 7476,
      "Ġplanned": 7477,
      "Ġartificial": 7478,
      "Ġparticipation": 7479,
      "Ġstroke": 7480,
      "Ġru": 7481,
      "isdom": 7482,
      "Ġedition": 7483,
      "Ġhorses": 7484,
      "Ġnan": 7485,
      "ĠSaturday": 7486,
      "Ġ1960": 7487,
      "asty": 7488,
      "Ġconstra": 7489,
      "Ġdraft": 7490,
      "72": 7491,
      "abil": 7492,
      "UL": 7493,
      "itivity": 7494,
      "Ġtill": 7495,
      "Ġhun": 7496,
      "Where": 7497,
      "otton": 7498,
      "Ġchair": 7499,
      "Ġstead": 7500,
      "Ġuniform": 7501,
      "Ġsought": 7502,
      "ref": 7503,
      "eps": 7504,
      "Ġbeliefs": 7505,
      "Ġnerv": 7506,
      "ĠPop": 7507,
      "Ġinsects": 7508,
      "nesday": 7509,
      "Ġpassage": 7510,
      "Ġdeclared": 7511,
      "Ġinstruments": 7512,
      "83": 7513,
      "Ġproved": 7514,
      "cycl": 7515,
      "irds": 7516,
      "Ġvoc": 7517,
      "Ġmanip": 7518,
      "estival": 7519,
      "real": 7520,
      "rue": 7521,
      "Ġvulnerable": 7522,
      "Ġterritory": 7523,
      "eting": 7524,
      "Ġreturns": 7525,
      "ĠSign": 7526,
      "oured": 7527,
      "law": 7528,
      "ĠEr": 7529,
      "Ġconstructed": 7530,
      "Ġchrom": 7531,
      "Ġcriteria": 7532,
      "ĠTable": 7533,
      "Ġprofit": 7534,
      "ĠAst": 7535,
      "idity": 7536,
      "ĠRevolution": 7537,
      "Ġsmoke": 7538,
      "ĠSystems": 7539,
      "Ġbless": 7540,
      "Ġintense": 7541,
      "Ġimplemented": 7542,
      "elta": 7543,
      "ften": 7544,
      "Ġgift": 7545,
      "amber": 7546,
      "Ġ74": 7547,
      "oga": 7548,
      "amil": 7549,
      "ĠPolic": 7550,
      "Ġhappening": 7551,
      "Ġrice": 7552,
      "gans": 7553,
      "Ġnerve": 7554,
      "Ġupdated": 7555,
      "asant": 7556,
      "Ġindustries": 7557,
      "ĠGr": 7558,
      "Ġstatistics": 7559,
      "Ġpharm": 7560,
      "ĠIndust": 7561,
      "ĠMen": 7562,
      "Ġmice": 7563,
      "Ġpup": 7564,
      "ĠCP": 7565,
      "Ġdioxide": 7566,
      "ega": 7567,
      "Ġhistoric": 7568,
      "Ġessentially": 7569,
      "ĠThanks": 7570,
      "Ġabandon": 7571,
      "ĠID": 7572,
      "74": 7573,
      "ĠEU": 7574,
      "Ġtub": 7575,
      "Ġcompens": 7576,
      "ĠSometimes": 7577,
      "Ġhonest": 7578,
      "oir": 7579,
      "Ġcharged": 7580,
      "ollowing": 7581,
      "Ġproportion": 7582,
      "Car": 7583,
      "Ġcalcium": 7584,
      "Ġdealing": 7585,
      "Ġpsychological": 7586,
      "arsh": 7587,
      "Ġexperimental": 7588,
      "ĠSar": 7589,
      "Ġroles": 7590,
      "IF": 7591,
      "ĠJeff": 7592,
      "Ġfrequent": 7593,
      "ython": 7594,
      "trans": 7595,
      "Ġconcerning": 7596,
      "Ġreasonable": 7597,
      "Ġreward": 7598,
      "Ġmaintaining": 7599,
      "reek": 7600,
      "ĠDev": 7601,
      "Ġprohib": 7602,
      "Ġcurve": 7603,
      "Ġmathematical": 7604,
      "Ġmood": 7605,
      "Ġsharp": 7606,
      "Ġinterface": 7607,
      "Ġspectrum": 7608,
      "Ġhence": 7609,
      "Ġ150": 7610,
      "Ġsmoking": 7611,
      "Ġcontemporary": 7612,
      "theless": 7613,
      "TH": 7614,
      "gence": 7615,
      "Ġthread": 7616,
      "Ġburning": 7617,
      "ĠSir": 7618,
      "Ġworst": 7619,
      "ĠZeal": 7620,
      "Ġstronger": 7621,
      "iana": 7622,
      "Ġrely": 7623,
      "Today": 7624,
      "Ġweapons": 7625,
      "Ġsurprising": 7626,
      "Ġcollaboration": 7627,
      "Ġcats": 7628,
      "ĠThough": 7629,
      "Ġrecept": 7630,
      "ĠJohnson": 7631,
      "Ġdriven": 7632,
      "anger": 7633,
      "Ġoverw": 7634,
      "Ġlights": 7635,
      "Ġguidance": 7636,
      "Ġempty": 7637,
      "SP": 7638,
      "Ġsubsc": 7639,
      "Ġdependent": 7640,
      "ibl": 7641,
      "ba": 7642,
      "ĠLight": 7643,
      "ĠFinally": 7644,
      "Just": 7645,
      "Ġclothing": 7646,
      "Col": 7647,
      "sen": 7648,
      "Ġplain": 7649,
      "Ġinspired": 7650,
      "ĠFather": 7651,
      "Ġ33": 7652,
      "ĠType": 7653,
      "imp": 7654,
      "ĠEastern": 7655,
      "ĠChapter": 7656,
      "Ġcontrovers": 7657,
      "rency": 7658,
      "irus": 7659,
      "Ġheads": 7660,
      "rous": 7661,
      "Ġmir": 7662,
      "pes": 7663,
      "Ġcareful": 7664,
      "Ġattempts": 7665,
      "uality": 7666,
      "acks": 7667,
      "esis": 7668,
      "Ġwheel": 7669,
      "ĠLead": 7670,
      "Ġdent": 7671,
      "Ġequally": 7672,
      "Ġsurfaces": 7673,
      "Ġcalculate": 7674,
      "Ġcooking": 7675,
      "Ġcenters": 7676,
      "Ġexception": 7677,
      "ĠAgricult": 7678,
      "Ġmechanical": 7679,
      "aired": 7680,
      "Ġinformed": 7681,
      "Ġdynamic": 7682,
      "Ġproven": 7683,
      "Ġeastern": 7684,
      "orted": 7685,
      "Ġturb": 7686,
      "unning": 7687,
      "Ġduty": 7688,
      "Ġstrange": 7689,
      "Ġindependence": 7690,
      "Ġcarrying": 7691,
      "ĠViet": 7692,
      "Ġtheories": 7693,
      "ĠEmpire": 7694,
      "Ġexceed": 7695,
      "AA": 7696,
      "apse": 7697,
      "eli": 7698,
      "ĠFigure": 7699,
      "Ġsad": 7700,
      "Ġremoval": 7701,
      "ãĢ": 7702,
      "ĠCentre": 7703,
      "Ġmusical": 7704,
      "Ġ2021": 7705,
      "ĠKingdom": 7706,
      "Ġprincipal": 7707,
      ")\\": 7708,
      "enger": 7709,
      "ĠSpring": 7710,
      "ersonal": 7711,
      "Ġprovider": 7712,
      "Ġarts": 7713,
      "Ġclaimed": 7714,
      "including": 7715,
      "ortion": 7716,
      "Ġbehaviors": 7717,
      "_{\\": 7718,
      "Ġmeters": 7719,
      "Also": 7720,
      "Ġadequate": 7721,
      "Ġinterpre": 7722,
      "Ġrecommendations": 7723,
      "Ġintent": 7724,
      "Ġpayment": 7725,
      "ĠZealand": 7726,
      "lishing": 7727,
      "sum": 7728,
      "Ġupdate": 7729,
      "Ġcalculated": 7730,
      "Ġcontamin": 7731,
      "ĠIndians": 7732,
      "eren": 7733,
      "acher": 7734,
      "Ġexciting": 7735,
      "ĠClick": 7736,
      "irms": 7737,
      "Ġintellectual": 7738,
      "agraph": 7739,
      "Ġprinted": 7740,
      "Ġtons": 7741,
      "ĠResp": 7742,
      "ials": 7743,
      "čĊčĊĠĠĠĠĠčĊčĊčĊĠĠĠĠĠ": 7744,
      "Ġampl": 7745,
      "section": 7746,
      "atern": 7747,
      "Ġreduces": 7748,
      "iary": 7749,
      "Ġinnovation": 7750,
      "Ġshad": 7751,
      "ĠLow": 7752,
      "ĠEst": 7753,
      "Ġ400": 7754,
      "abul": 7755,
      "Ġrational": 7756,
      "Ġscar": 7757,
      "Ġexercises": 7758,
      "Ġpresents": 7759,
      "Ġabsence": 7760,
      "ĠÐ": 7761,
      "ounter": 7762,
      "Ġdates": 7763,
      "Ġdestruction": 7764,
      "Ġcounsel": 7765,
      "Ġscan": 7766,
      "ĠFour": 7767,
      "ĠCH": 7768,
      "ĠModel": 7769,
      "82": 7770,
      "Ġresid": 7771,
      "Ġepid": 7772,
      "Ġgreenhouse": 7773,
      "Ġprofile": 7774,
      "fe": 7775,
      "ĠCard": 7776,
      "Ġnose": 7777,
      "Ġwed": 7778,
      "ritis": 7779,
      "ĠCast": 7780,
      "OD": 7781,
      "Ġserves": 7782,
      "81": 7783,
      "ĠIraq": 7784,
      "friend": 7785,
      "osion": 7786,
      "Are": 7787,
      "Ġdamaged": 7788,
      "About": 7789,
      "Ġcommitment": 7790,
      "Ġdetection": 7791,
      "Ġcomposed": 7792,
      "Ġfeels": 7793,
      "Ġmarks": 7794,
      "yal": 7795,
      "ĠAge": 7796,
      "Ġadds": 7797,
      "ĠEngineering": 7798,
      "96": 7799,
      "Ġcorrectly": 7800,
      "cking": 7801,
      "Ġfinds": 7802,
      "Ġmolecular": 7803,
      "Ġtor": 7804,
      "Ġpeak": 7805,
      "ometric": 7806,
      "ĠForest": 7807,
      "Ġsup": 7808,
      "Ġtelling": 7809,
      "ĠChange": 7810,
      "Ġopposed": 7811,
      "93": 7812,
      "ogs": 7813,
      "Ġunw": 7814,
      "rh": 7815,
      "Ġven": 7816,
      "ĠStart": 7817,
      "ediatric": 7818,
      "ĠClimate": 7819,
      "Ġfant": 7820,
      "Ġpoison": 7821,
      "ĠBest": 7822,
      "http": 7823,
      "alm": 7824,
      "etics": 7825,
      "ĠLanguage": 7826,
      "Ġgram": 7827,
      "atively": 7828,
      "Ġassigned": 7829,
      "Ġsister": 7830,
      "omer": 7831,
      "Ġwriters": 7832,
      "Ġboat": 7833,
      "Ġsam": 7834,
      "Ġmos": 7835,
      "ultane": 7836,
      "charge": 7837,
      "Ġorganisms": 7838,
      "Ġpin": 7839,
      "ĠAuthor": 7840,
      "Ġneur": 7841,
      "olving": 7842,
      "ĠEffect": 7843,
      "Ġdirected": 7844,
      "rot": 7845,
      "Ġdesert": 7846,
      "Ġassets": 7847,
      "ĠMathemat": 7848,
      "Ġstimul": 7849,
      "ĠBack": 7850,
      "Ġnewly": 7851,
      "Ġconsideration": 7852,
      "ruption": 7853,
      "ontal": 7854,
      "lete": 7855,
      "Ġsuit": 7856,
      "Ġinterpretation": 7857,
      "plant": 7858,
      "Ġ%": 7859,
      "Ġofficer": 7860,
      "ĠLast": 7861,
      "espread": 7862,
      "Ġmold": 7863,
      "ĠCross": 7864,
      "Ġnervous": 7865,
      "opyright": 7866,
      "ailable": 7867,
      "ocolate": 7868,
      "Ġmining": 7869,
      "eenth": 7870,
      "Ġfriendly": 7871,
      "Ġhardware": 7872,
      "icted": 7873,
      "ĠMinister": 7874,
      "ĠThree": 7875,
      "inite": 7876,
      "ruit": 7877,
      "Ġmaintained": 7878,
      "Ġfever": 7879,
      "Ġcav": 7880,
      "Ġrect": 7881,
      "Ġunion": 7882,
      "Ġclassic": 7883,
      "Ġprospect": 7884,
      "ĠMax": 7885,
      "}^{": 7886,
      "ĠConference": 7887,
      "Ġhidden": 7888,
      "00000000": 7889,
      "vard": 7890,
      "ĠUt": 7891,
      "operation": 7892,
      "Ġsubstances": 7893,
      "earchers": 7894,
      "Ġbought": 7895,
      "ĠFurthermore": 7896,
      "Ġversions": 7897,
      "haust": 7898,
      "Ġfan": 7899,
      "Ġrarely": 7900,
      "Ġlistening": 7901,
      "produ": 7902,
      "Ġshapes": 7903,
      "Ġsizes": 7904,
      "opes": 7905,
      "ĠTH": 7906,
      "Ġstability": 7907,
      "Ġadvantages": 7908,
      "Ġexamination": 7909,
      "ĠAgency": 7910,
      "ĠEp": 7911,
      "Ġholiday": 7912,
      "Ġmic": 7913,
      "ĠTwitter": 7914,
      "ima": 7915,
      "97": 7916,
      "Ġsubsequent": 7917,
      "ĠNever": 7918,
      "aren": 7919,
      "Ġsignificance": 7920,
      "Ġdiagnosed": 7921,
      "ĠAsian": 7922,
      "ilation": 7923,
      "Ġmodified": 7924,
      "ĠIns": 7925,
      "Ġcombat": 7926,
      "OP": 7927,
      "iral": 7928,
      "ĠSwed": 7929,
      "ĠAtlantic": 7930,
      "Ġquantity": 7931,
      "gov": 7932,
      "Ġencouraged": 7933,
      "ocument": 7934,
      "Ġdose": 7935,
      "Ġrecover": 7936,
      "CR": 7937,
      "Ġlogic": 7938,
      "Ġaudio": 7939,
      "ĠHand": 7940,
      "Ġinher": 7941,
      "Ġdance": 7942,
      "fol": 7943,
      "hus": 7944,
      "ĠHor": 7945,
      "ĠBoston": 7946,
      "Ġsuffered": 7947,
      "urning": 7948,
      "asts": 7949,
      "Ġyes": 7950,
      "ĠTri": 7951,
      "ĠFil": 7952,
      "Ġuniversal": 7953,
      "Ġtube": 7954,
      "Ġspoke": 7955,
      "allow": 7956,
      "ansas": 7957,
      "Ġjoy": 7958,
      "ett": 7959,
      "Ġabsolutely": 7960,
      "Ġdeeper": 7961,
      "umer": 7962,
      "ĠPot": 7963,
      "medi": 7964,
      "Ġtaxes": 7965,
      "Ġextension": 7966,
      "rection": 7967,
      "Ġhat": 7968,
      "CP": 7969,
      "Ġmixture": 7970,
      "Ġgained": 7971,
      "Ġwarning": 7972,
      "Ġdefect": 7973,
      "Ġconj": 7974,
      "quir": 7975,
      "Ġinnovative": 7976,
      "Ġextend": 7977,
      "ĠMu": 7978,
      "iler": 7979,
      "Ġvertical": 7980,
      "ĠVen": 7981,
      "ĠResources": 7982,
      "Ġproviders": 7983,
      "ĠArticle": 7984,
      "Ġinitially": 7985,
      "itle": 7986,
      "Ġwelcome": 7987,
      "ĠNative": 7988,
      "sqrt": 7989,
      "ĠIran": 7990,
      "Ġkitchen": 7991,
      "Ġdispl": 7992,
      "ospit": 7993,
      "ĠKar": 7994,
      "ĠBlue": 7995,
      "Ġfalls": 7996,
      "Ġcoc": 7997,
      "ĠBal": 7998,
      "Ġscheme": 7999,
      "MA": 8000,
      "ocket": 8001,
      "ĠCoast": 8002,
      "Ġalive": 8003,
      "ĠPoint": 8004,
      "Ġspecified": 8005,
      "EG": 8006,
      "Ġcaptured": 8007,
      "Ġflour": 8008,
      "Ġobserve": 8009,
      "Ġadvis": 8010,
      "Ġkeeps": 8011,
      "pass": 8012,
      "ĠOxford": 8013,
      "Ġconsiderable": 8014,
      "semb": 8015,
      "mal": 8016,
      "rane": 8017,
      "Ġunusual": 8018,
      "Ġholes": 8019,
      "Ġposted": 8020,
      "ĠClub": 8021,
      "ĠWay": 8022,
      "Ġsongs": 8023,
      "Ġroughly": 8024,
      "ĠEarly": 8025,
      "Ġmoisture": 8026,
      "icular": 8027,
      "ĠAmazon": 8028,
      "Ġ1994": 8029,
      "roat": 8030,
      "Ġtexts": 8031,
      "Comm": 8032,
      "ĠAdministration": 8033,
      "pled": 8034,
      "Ġcarb": 8035,
      "Ġwebsites": 8036,
      "Ġelected": 8037,
      "bel": 8038,
      "Ġdigest": 8039,
      "Ġlists": 8040,
      "Ġobesity": 8041,
      "Ġprime": 8042,
      "Ġgrid": 8043,
      "Ġtissues": 8044,
      "amma": 8045,
      "Ġradical": 8046,
      "Ġbomb": 8047,
      "obile": 8048,
      "Ġcheap": 8049,
      "Ġorbit": 8050,
      "Ġphenomenon": 8051,
      "Ġoutbre": 8052,
      "Ġsuperior": 8053,
      "ĠAR": 8054,
      "Ġclothes": 8055,
      "ymph": 8056,
      "Ġtrends": 8057,
      "Part": 8058,
      "Ġnest": 8059,
      "Ġperfectly": 8060,
      "Ġexplicit": 8061,
      "zer": 8062,
      "Ġproud": 8063,
      "Ġtargets": 8064,
      "oples": 8065,
      "ĠMichigan": 8066,
      "ĠContin": 8067,
      "opic": 8068,
      "Ġarguments": 8069,
      "Ġbranches": 8070,
      "iratory": 8071,
      "ĠLee": 8072,
      "Ġwidespread": 8073,
      "Ġcalories": 8074,
      "Ġflash": 8075,
      "Sim": 8076,
      "ourse": 8077,
      "Ġouter": 8078,
      "ĠOl": 8079,
      "Ġheating": 8080,
      "Ġbabies": 8081,
      "elesc": 8082,
      "Ġinequ": 8083,
      "ĠLo": 8084,
      "iner": 8085,
      "Ġexecutive": 8086,
      "ĠEc": 8087,
      "Ġbare": 8088,
      "Pr": 8089,
      "Ġdiameter": 8090,
      "ĠSupreme": 8091,
      "peror": 8092,
      "aska": 8093,
      "adder": 8094,
      "ĠAnalysis": 8095,
      "ĠHead": 8096,
      "Ġsubstantial": 8097,
      "Ġgiant": 8098,
      "ĠLy": 8099,
      "atial": 8100,
      "Ġinterior": 8101,
      "Ġpurs": 8102,
      "mers": 8103,
      "Ġbuying": 8104,
      "Ġgranted": 8105,
      "onia": 8106,
      "Ġconserv": 8107,
      "Ġinsulin": 8108,
      "Ġpointed": 8109,
      "ĠMD": 8110,
      "Ġchest": 8111,
      "Ġfocuses": 8112,
      "Ġlake": 8113,
      "ĠColl": 8114,
      "Ġdisaster": 8115,
      "Ġanalys": 8116,
      "\")": 8117,
      "ĠDC": 8118,
      "rical": 8119,
      "Ġaims": 8120,
      "ĠPen": 8121,
      "ĠThursday": 8122,
      "ependent": 8123,
      "cos": 8124,
      "athered": 8125,
      "eping": 8126,
      "Ġ48": 8127,
      "Ġestate": 8128,
      "92": 8129,
      "ĠCode": 8130,
      "Ġreporting": 8131,
      "Ġpregnant": 8132,
      "Ġ72": 8133,
      "hyd": 8134,
      "Ġathlet": 8135,
      "log": 8136,
      "Ġdemands": 8137,
      "Ġnoticed": 8138,
      "Ġfaces": 8139,
      "times": 8140,
      "Ġincident": 8141,
      "jo": 8142,
      "date": 8143,
      "ĠLearn": 8144,
      "čĊčĊÂł": 8145,
      "Ġregardless": 8146,
      "brid": 8147,
      "ĠCOVID": 8148,
      "ĠIss": 8149,
      "ĠIV": 8150,
      "Ġclock": 8151,
      "inates": 8152,
      "Ġvariation": 8153,
      "airy": 8154,
      "ĠForce": 8155,
      "ĠPrinc": 8156,
      "Ġbeings": 8157,
      "ĠSpirit": 8158,
      "ailing": 8159,
      "mann": 8160,
      "Ġcontribution": 8161,
      "esh": 8162,
      "Ġvelocity": 8163,
      "Ġrooms": 8164,
      "ATION": 8165,
      "erty": 8166,
      "ĠPlant": 8167,
      "Ġgradually": 8168,
      "Ġobservation": 8169,
      "estions": 8170,
      "Ġintroduce": 8171,
      "Ġsatellite": 8172,
      "encing": 8173,
      "ĠLos": 8174,
      "Ġroads": 8175,
      "html": 8176,
      "Ġchlor": 8177,
      "Ġflower": 8178,
      "otype": 8179,
      "Ġassert": 8180,
      "Ġheavily": 8181,
      "ĠOhio": 8182,
      "Ġfaced": 8183,
      "gon": 8184,
      "Who": 8185,
      "aping": 8186,
      "Ġ64": 8187,
      "imensional": 8188,
      "Ġtemple": 8189,
      "Ġhealing": 8190,
      "Ġprinting": 8191,
      "Ġ\\\\": 8192,
      "quit": 8193,
      "Ġspr": 8194,
      "Ġislands": 8195,
      "Ġfed": 8196,
      "Com": 8197,
      "Ġfalling": 8198,
      "Ġeliminate": 8199,
      "Ġdrain": 8200,
      "Ġdropped": 8201,
      "Ġearthqu": 8202,
      "Ġalb": 8203,
      "ĠLin": 8204,
      "Ġexcited": 8205,
      "Ġreveal": 8206,
      "Up": 8207,
      "effect": 8208,
      "Ġ~": 8209,
      "ĠMedia": 8210,
      "Ġdiscrimination": 8211,
      "ĠAmong": 8212,
      "ĠTuesday": 8213,
      "Ġtranslation": 8214,
      "ãģ": 8215,
      "ĠAri": 8216,
      "94": 8217,
      "Ġordinary": 8218,
      "}_{": 8219,
      "Ġease": 8220,
      "Ġreviews": 8221,
      "Ġcovering": 8222,
      "Ġtrigger": 8223,
      "ĠNaz": 8224,
      "Ġrocks": 8225,
      "Ġdifficulties": 8226,
      "Ġheaven": 8227,
      "ĠJun": 8228,
      "ptic": 8229,
      "Ġsmell": 8230,
      "ao": 8231,
      "itarian": 8232,
      "Ġdys": 8233,
      "cyclop": 8234,
      "Ġcompound": 8235,
      "ĠKorea": 8236,
      "Ġpermission": 8237,
      "Ġrealized": 8238,
      "++": 8239,
      "ĠDivision": 8240,
      "Ġvisited": 8241,
      "Ġdrivers": 8242,
      "Ġ37": 8243,
      "Ġauthent": 8244,
      "Ġimplications": 8245,
      "mathbb": 8246,
      "Step": 8247,
      "ishop": 8248,
      "oids": 8249,
      "Ġnom": 8250,
      "Ġsaved": 8251,
      "ĠSimilar": 8252,
      "ker": 8253,
      "Ġeffectiveness": 8254,
      "Ġpolar": 8255,
      "Ġglucose": 8256,
      "Ġowned": 8257,
      "actions": 8258,
      "ught": 8259,
      "Ġgentle": 8260,
      "health": 8261,
      "ĠFar": 8262,
      "rays": 8263,
      "berry": 8264,
      "Ġhall": 8265,
      "Ġfishing": 8266,
      "words": 8267,
      "ĠPDF": 8268,
      "icing": 8269,
      "Ġintegration": 8270,
      "Ġcoastal": 8271,
      "Ġcopyright": 8272,
      "vation": 8273,
      "Ġsubstit": 8274,
      "Ġwrites": 8275,
      "====": 8276,
      "Ġvolcan": 8277,
      "Ġtotally": 8278,
      "Ġgalax": 8279,
      "rible": 8280,
      "abeth": 8281,
      "ĠLine": 8282,
      "Ġderiv": 8283,
      "ĠDespite": 8284,
      "ĠMusic": 8285,
      "Ĥ¬": 8286,
      "Ġrenewable": 8287,
      "EF": 8288,
      "John": 8289,
      "ĠPak": 8290,
      "Ġkidney": 8291,
      "ĠColumbia": 8292,
      "Ġbiod": 8293,
      ")|": 8294,
      "ĠApple": 8295,
      "Ġirrit": 8296,
      "Ġinfluenced": 8297,
      "ĠAgain": 8298,
      "oln": 8299,
      "Ġsimultane": 8300,
      "Cons": 8301,
      "race": 8302,
      "ĠQueen": 8303,
      "}^": 8304,
      "Ġpursu": 8305,
      "Ġremed": 8306,
      "iological": 8307,
      "Ġsurprise": 8308,
      "Ġovercome": 8309,
      "ĠWhich": 8310,
      "!\"": 8311,
      "Ġstructural": 8312,
      "Ġtom": 8313,
      "ĠView": 8314,
      "Ġorgans": 8315,
      "Ġpros": 8316,
      "Ġcommittee": 8317,
      "Ġfraction": 8318,
      "Ġabstract": 8319,
      "'.": 8320,
      "Ġviewed": 8321,
      "rolled": 8322,
      "unicip": 8323,
      "Ġminerals": 8324,
      "Ġpreced": 8325,
      "Ġretail": 8326,
      "Ġpromise": 8327,
      "Ġoverwhel": 8328,
      "acco": 8329,
      "ĠLittle": 8330,
      "ĠPage": 8331,
      "ĠProduct": 8332,
      "thritis": 8333,
      "endment": 8334,
      "prise": 8335,
      "Ġaccompan": 8336,
      "2013": 8337,
      "Ġregulation": 8338,
      "Â·Â·Â·Â·": 8339,
      "ildren": 8340,
      "Ġfinger": 8341,
      "Ġpreventing": 8342,
      "host": 8343,
      "claim": 8344,
      "ĠLim": 8345,
      "oric": 8346,
      "edu": 8347,
      "ĠMach": 8348,
      "holders": 8349,
      "ĠHospital": 8350,
      "Ġintensity": 8351,
      "ĠHot": 8352,
      "Ġcommunications": 8353,
      "Ġrivers": 8354,
      "Ġenjoyed": 8355,
      "ĠCurrent": 8356,
      "Ġclassical": 8357,
      "ideo": 8358,
      "anned": 8359,
      "People": 8360,
      "abulary": 8361,
      "Ġscores": 8362,
      "erman": 8363,
      "Ġcub": 8364,
      "amine": 8365,
      "ĠSenate": 8366,
      "made": 8367,
      "Ġprominent": 8368,
      "there": 8369,
      "ĠWal": 8370,
      "Ġscreening": 8371,
      "2012": 8372,
      "swered": 8373,
      "Ġenorm": 8374,
      "Ġbelieves": 8375,
      "heric": 8376,
      "Ġwearing": 8377,
      "Ġfavour": 8378,
      "ĠAdditionally": 8379,
      "ĠPolicy": 8380,
      "Ġphysician": 8381,
      "Ġfo": 8382,
      "ĠMicrosoft": 8383,
      "Ġgut": 8384,
      "Ġsuddenly": 8385,
      "Ġillegal": 8386,
      "Ġ34": 8387,
      "lock": 8388,
      "neys": 8389,
      "Ġmales": 8390,
      "Ġstreets": 8391,
      "ĠGeorgia": 8392,
      "foot": 8393,
      "ĠSection": 8394,
      "LA": 8395,
      "Ġalgebra": 8396,
      "itting": 8397,
      "etary": 8398,
      "Ġmeasuring": 8399,
      "str": 8400,
      "iat": 8401,
      "Ġacting": 8402,
      "Ġhoney": 8403,
      "olt": 8404,
      "Ġlosing": 8405,
      "idation": 8406,
      "Ġexpectations": 8407,
      "9999": 8408,
      "Ġopposition": 8409,
      "ĠShow": 8410,
      "ensed": 8411,
      "Ġavailability": 8412,
      "ĠLu": 8413,
      "Ġmeals": 8414,
      "Ġnumer": 8415,
      "Ġidentification": 8416,
      "ĠCirc": 8417,
      "HS": 8418,
      "Ġworship": 8419,
      "ĠCell": 8420,
      "Ġinsight": 8421,
      "Ġacute": 8422,
      "Ġtong": 8423,
      "Ġcharges": 8424,
      "Ġaddressed": 8425,
      "Ġalter": 8426,
      "Ġconvert": 8427,
      "Ġfarming": 8428,
      "Ġstake": 8429,
      "Ġlaser": 8430,
      "Ġpaying": 8431,
      "Ġreaching": 8432,
      "ĠKey": 8433,
      "Ġmortality": 8434,
      "Ġprogramme": 8435,
      "vin": 8436,
      "through": 8437,
      "Ġnitrogen": 8438,
      "endar": 8439,
      "Co": 8440,
      "occ": 8441,
      "Ġperforming": 8442,
      "plate": 8443,
      "ĠTry": 8444,
      "ifier": 8445,
      "Ġweekend": 8446,
      "lymp": 8447,
      "aints": 8448,
      "Ġdism": 8449,
      "Ġexhaust": 8450,
      "Ġpand": 8451,
      "adel": 8452,
      "igate": 8453,
      "Ġharder": 8454,
      "ĠMoon": 8455,
      ")=": 8456,
      "Ġargue": 8457,
      "alpha": 8458,
      "onal": 8459,
      "Ġtreating": 8460,
      "acent": 8461,
      "Ġstrike": 8462,
      "Any": 8463,
      "Ġmyst": 8464,
      "Ġmountains": 8465,
      "ĠUnfortunately": 8466,
      "Ġles": 8467,
      "ĠHim": 8468,
      "ĠSS": 8469,
      "Ġinfect": 8470,
      "Ġwisdom": 8471,
      "itamin": 8472,
      "ĠLi": 8473,
      "Ġexamined": 8474,
      "Ne": 8475,
      "utrition": 8476,
      "Ġtack": 8477,
      "Mar": 8478,
      "ushing": 8479,
      "Ġkilomet": 8480,
      "Ġflying": 8481,
      "Ġbuff": 8482,
      "ket": 8483,
      "Ġ61": 8484,
      "vania": 8485,
      "Ġfemales": 8486,
      "Ġarchae": 8487,
      "ĠJustice": 8488,
      "Ġgrain": 8489,
      "Ġrestric": 8490,
      "Ġseriously": 8491,
      "uled": 8492,
      "ĠSafety": 8493,
      "Sm": 8494,
      "elfare": 8495,
      "aus": 8496,
      "Ã¤": 8497,
      "ĠSP": 8498,
      "ecess": 8499,
      "Ġsect": 8500,
      "Ġacquired": 8501,
      "Ġconcluded": 8502,
      "Ġexcessive": 8503,
      "Ġ55": 8504,
      "Ġaqu": 8505,
      "Ġviruses": 8506,
      "Pre": 8507,
      "ĠPolit": 8508,
      "Ġfans": 8509,
      "Ġregistered": 8510,
      "heimer": 8511,
      "Ġkilling": 8512,
      "Ġvictory": 8513,
      "Ġsteam": 8514,
      "Ġtab": 8515,
      "Ġchose": 8516,
      "bell": 8517,
      "Ġgate": 8518,
      "Ġasc": 8519,
      "Ġsla": 8520,
      "Ġfing": 8521,
      "ĠEnter": 8522,
      "Ġenables": 8523,
      "Ġstations": 8524,
      "Ġ1950": 8525,
      "Ġ1993": 8526,
      "Ġthermal": 8527,
      "Ġbiology": 8528,
      "amins": 8529,
      "Ġworkshe": 8530,
      "itory": 8531,
      "ĠGar": 8532,
      "ĠFre": 8533,
      "ĠUr": 8534,
      "Ġmetabol": 8535,
      "reated": 8536,
      "ĠSqu": 8537,
      "Ġmineral": 8538,
      "Ġbasically": 8539,
      "Ġdinner": 8540,
      "irth": 8541,
      "2011": 8542,
      "ĠKh": 8543,
      "Ġcopper": 8544,
      "ĠProble": 8545,
      "Ġassumed": 8546,
      "aded": 8547,
      "Ġmg": 8548,
      "vals": 8549,
      "Ġcontributions": 8550,
      "Ref": 8551,
      "ĠOrig": 8552,
      "Ġstrengthen": 8553,
      "ĠInvest": 8554,
      "ĠReal": 8555,
      "Ġbiom": 8556,
      "Ġcream": 8557,
      "ĠWithout": 8558,
      "function": 8559,
      "they": 8560,
      "arents": 8561,
      "Art": 8562,
      "raid": 8563,
      "ĠPalest": 8564,
      "ĠLog": 8565,
      "Ġprocessed": 8566,
      "ĠColorado": 8567,
      "Ġpreferred": 8568,
      "ĠBa": 8569,
      "Ġsolving": 8570,
      "type": 8571,
      "Ġloan": 8572,
      "Ġanswered": 8573,
      "Ġinteractive": 8574,
      "Ġdirections": 8575,
      "Ġseparated": 8576,
      "ĠOk": 8577,
      "Ġcharacteristic": 8578,
      "Ġapplying": 8579,
      "Ġrevenue": 8580,
      "Before": 8581,
      "after": 8582,
      "ila": 8583,
      "amination": 8584,
      "Ġresc": 8585,
      "Ġselling": 8586,
      "Ġflows": 8587,
      "Ġracial": 8588,
      "ĠHeart": 8589,
      "igue": 8590,
      "DS": 8591,
      "hire": 8592,
      "Ġchances": 8593,
      "Ġcontributed": 8594,
      "Ġmanufacturers": 8595,
      "ĠWednesday": 8596,
      "ĠMah": 8597,
      "syl": 8598,
      "Ġinfant": 8599,
      "iger": 8600,
      "Ġ69": 8601,
      "Ġmanual": 8602,
      "ĠÂ»": 8603,
      "Ġslavery": 8604,
      "Ġappointed": 8605,
      "IDS": 8606,
      "Ġcomplexity": 8607,
      "usalem": 8608,
      "Ear": 8609,
      "ĠMur": 8610,
      "Tra": 8611,
      "2010": 8612,
      ",\\": 8613,
      "Ġdecay": 8614,
      "ĠNOT": 8615,
      "Ġbreed": 8616,
      "ĠWeek": 8617,
      "Ġslave": 8618,
      "Ġflexible": 8619,
      "Ġphrase": 8620,
      "Ġpurchased": 8621,
      "uten": 8622,
      "Ġthreats": 8623,
      "%,": 8624,
      "atal": 8625,
      "Ġreferences": 8626,
      "iations": 8627,
      "Ġaccord": 8628,
      "urable": 8629,
      "lights": 8630,
      "Ġelder": 8631,
      "Ġattach": 8632,
      "Ġdemocracy": 8633,
      "Ġmicrosc": 8634,
      "ols": 8635,
      "Ġ1992": 8636,
      "Ġimprovements": 8637,
      "cm": 8638,
      "ema": 8639,
      "incoln": 8640,
      "ventions": 8641,
      "Ġperception": 8642,
      "Ġdeeply": 8643,
      "efficient": 8644,
      "ĠNext": 8645,
      "ĠLORD": 8646,
      "ĠChief": 8647,
      "Ġdetected": 8648,
      "Ġcharacterized": 8649,
      "Ġhazard": 8650,
      "Ġauto": 8651,
      "izabeth": 8652,
      "Ġbreeding": 8653,
      "itual": 8654,
      "ternoon": 8655,
      "ĠHT": 8656,
      "Ġlip": 8657,
      "Ġobjectives": 8658,
      "disc": 8659,
      "Ġjur": 8660,
      "Ġtip": 8661,
      "Ġemphasis": 8662,
      "ocial": 8663,
      "Ġstyles": 8664,
      "ĠRight": 8665,
      "Ġengineers": 8666,
      "Ġtowns": 8667,
      "ĠStan": 8668,
      "Ġbusy": 8669,
      "Ġlens": 8670,
      "ostic": 8671,
      "Ġcompetitive": 8672,
      "Ġcandidate": 8673,
      "Ġcapabilities": 8674,
      "Ġcomputing": 8675,
      "Ġaged": 8676,
      "Pub": 8677,
      "Ġapparently": 8678,
      "Ġq": 8679,
      "ĠPass": 8680,
      "Ġvarieties": 8681,
      "Ġnotion": 8682,
      "Ġbeach": 8683,
      "Sub": 8684,
      "ĠDO": 8685,
      "Ġphosph": 8686,
      "Ġabilities": 8687,
      "Ġpriority": 8688,
      "Ġsessions": 8689,
      "Ġneutral": 8690,
      "Ġconqu": 8691,
      "Ġisolated": 8692,
      "ĠLess": 8693,
      "Ġexpertise": 8694,
      "Ġsummary": 8695,
      "Ġatoms": 8696,
      "ĠâĢĻ": 8697,
      "Ġtag": 8698,
      "orry": 8699,
      "Ġtract": 8700,
      "Ġpropag": 8701,
      "Ġcooling": 8702,
      "Ġsle": 8703,
      "Ġtone": 8704,
      "Man": 8705,
      "Ġregister": 8706,
      "ĠAff": 8707,
      "Ġscope": 8708,
      "Ġparagraph": 8709,
      "Ġbees": 8710,
      "Ġintest": 8711,
      "ĠTar": 8712,
      "ĠFrancisco": 8713,
      "Che": 8714,
      "GB": 8715,
      "ustain": 8716,
      "Ġrequirement": 8717,
      "Ġroyal": 8718,
      ">>": 8719,
      "ĠChristians": 8720,
      "uum": 8721,
      "elve": 8722,
      "Ġspoken": 8723,
      "ician": 8724,
      "Ġdescript": 8725,
      "Ġregarded": 8726,
      "Ġmanaging": 8727,
      "ĠCambridge": 8728,
      "emia": 8729,
      "Ġparticle": 8730,
      "Ġrelie": 8731,
      "Ġidentifying": 8732,
      "ĠProtection": 8733,
      ".]": 8734,
      "Rep": 8735,
      "Ġtough": 8736,
      "opher": 8737,
      "Ġexperiencing": 8738,
      "orney": 8739,
      "ĠFig": 8740,
      "ĠPhot": 8741,
      "Ġprivacy": 8742,
      "istant": 8743,
      "ĠProcess": 8744,
      "Ġlosses": 8745,
      "Ġevident": 8746,
      "oons": 8747,
      "Ġmicrob": 8748,
      "Ġsevent": 8749,
      "Ġoccas": 8750,
      "Ġparas": 8751,
      "Ġfrust": 8752,
      "HD": 8753,
      "ovascular": 8754,
      "tles": 8755,
      "ĠOffic": 8756,
      "grade": 8757,
      "Ġtropical": 8758,
      "iments": 8759,
      "Ġcourts": 8760,
      "ĠDaniel": 8761,
      "Ġhal": 8762,
      "ĠMaster": 8763,
      "Ġreplacement": 8764,
      "Ġdisplayed": 8765,
      "Ġsubmit": 8766,
      "Ġanticip": 8767,
      "Ġsettlement": 8768,
      "Ġgrows": 8769,
      "Ġslaves": 8770,
      "91": 8771,
      "ĠOrganization": 8772,
      "ĠFact": 8773,
      "bec": 8774,
      "Ġentering": 8775,
      "ĠOlymp": 8776,
      "ĠHeb": 8777,
      "ali": 8778,
      "Ġcontainer": 8779,
      "ĠÂ·": 8780,
      "apped": 8781,
      "Ġcorporate": 8782,
      "Ġweakness": 8783,
      "Ġpy": 8784,
      "Ġ38": 8785,
      "Ġdecreased": 8786,
      "NS": 8787,
      "Ġdisrupt": 8788,
      "Ġalert": 8789,
      "Ġforecast": 8790,
      "ĠApplic": 8791,
      "Ġentit": 8792,
      "ĠPakistan": 8793,
      "Ġsuspect": 8794,
      "ĠHelp": 8795,
      "Ġtraditions": 8796,
      "Ġeverywhere": 8797,
      "Ġlowest": 8798,
      "awn": 8799,
      "Ġelsewhere": 8800,
      "har": 8801,
      "Ġpleasure": 8802,
      "Ġattitude": 8803,
      "Like": 8804,
      "worth": 8805,
      "Ġloose": 8806,
      "çļ": 8807,
      "ilst": 8808,
      "Ġ120": 8809,
      "world": 8810,
      "ĠEdward": 8811,
      "Ġinstallation": 8812,
      "Ġcomprom": 8813,
      "Ġthereby": 8814,
      "una": 8815,
      "Ġlicense": 8816,
      "Ġwise": 8817,
      "ĠCr": 8818,
      "Ġlighting": 8819,
      "reprene": 8820,
      "BA": 8821,
      "alities": 8822,
      "Ġinvestigate": 8823,
      "Ġpersonality": 8824,
      "Ġchap": 8825,
      "Ġdesk": 8826,
      "mega": 8827,
      "ami": 8828,
      "Ġscat": 8829,
      "Ġintegr": 8830,
      "elly": 8831,
      "Ġride": 8832,
      "Ġacres": 8833,
      "Ġhunting": 8834,
      "Ġbreaking": 8835,
      "page": 8836,
      "ĠEll": 8837,
      "Ġpreserve": 8838,
      "sylvania": 8839,
      "Under": 8840,
      "Ġimaging": 8841,
      "Ġrac": 8842,
      "Ġcort": 8843,
      "Two": 8844,
      "Ġcontinuing": 8845,
      "Ġfung": 8846,
      "Ġreverse": 8847,
      "icy": 8848,
      "ais": 8849,
      "Ġdimensions": 8850,
      "Ġparad": 8851,
      "ĠArts": 8852,
      "Ġsons": 8853,
      "Ġgraduate": 8854,
      "Ġexpanded": 8855,
      "dep": 8856,
      "Ġminimal": 8857,
      "omatic": 8858,
      "Ġtemporary": 8859,
      "Ġstrain": 8860,
      "ĠScotland": 8861,
      "Ġwal": 8862,
      "Ġhospit": 8863,
      "Ġtrading": 8864,
      "Ġdoors": 8865,
      "Ġalign": 8866,
      "apor": 8867,
      "Ġuncle": 8868,
      "agen": 8869,
      "ĠSep": 8870,
      "urches": 8871,
      "ĠAndrew": 8872,
      "ĠModern": 8873,
      "ĠLiter": 8874,
      "uset": 8875,
      "ĠReading": 8876,
      "Ġenthus": 8877,
      "ohyd": 8878,
      "Ġcotton": 8879,
      "Ġpairs": 8880,
      "Reg": 8881,
      "ĠDigital": 8882,
      "Ġscientist": 8883,
      "Ġconsume": 8884,
      "ditional": 8885,
      "Eng": 8886,
      "ĠCall": 8887,
      "ĠJones": 8888,
      "Ġoptimal": 8889,
      "Ġfur": 8890,
      "Ġcouncil": 8891,
      "AF": 8892,
      "ĠFred": 8893,
      "Ġsurge": 8894,
      "Each": 8895,
      "izz": 8896,
      "archy": 8897,
      "Ġspons": 8898,
      "ĠGall": 8899,
      "ĠTown": 8900,
      ".:": 8901,
      "anted": 8902,
      "ĠInit": 8903,
      "Ġhurt": 8904,
      "Ġcow": 8905,
      "Ġmouse": 8906,
      "Ġaside": 8907,
      "Ġdish": 8908,
      "Ġchoosing": 8909,
      "??": 8910,
      "Ġ42": 8911,
      "çļĦ": 8912,
      "azz": 8913,
      "Ġchemistry": 8914,
      "Fig": 8915,
      "RC": 8916,
      "cor": 8917,
      "Ġlibr": 8918,
      "ĠLeague": 8919,
      "ĠSon": 8920,
      "uan": 8921,
      "ĠHard": 8922,
      "Ġprotecting": 8923,
      "yan": 8924,
      "Ġsegment": 8925,
      "Ġevolved": 8926,
      "Ġpuzz": 8927,
      "Ġchicken": 8928,
      "ĠNY": 8929,
      "Ġmeetings": 8930,
      "ĠJerusalem": 8931,
      "olesc": 8932,
      "ĠMic": 8933,
      "mble": 8934,
      "onents": 8935,
      "Ġfet": 8936,
      "Ġinitiative": 8937,
      "}(": 8938,
      "arks": 8939,
      "Ġnewspaper": 8940,
      "thew": 8941,
      "Ġcandidates": 8942,
      "ulpt": 8943,
      "ĠStandard": 8944,
      "aters": 8945,
      "Ġov": 8946,
      "Ġabnormal": 8947,
      "Ġaimed": 8948,
      "Ġminds": 8949,
      "Ġvariations": 8950,
      "idal": 8951,
      "Ġasthma": 8952,
      "pan": 8953,
      "books": 8954,
      "ĠMot": 8955,
      "Ġvot": 8956,
      "ĠRh": 8957,
      "Ġmoderate": 8958,
      "Ġbroke": 8959,
      "Ġpermit": 8960,
      "achers": 8961,
      "Ġinhabit": 8962,
      "uity": 8963,
      "Ġlearners": 8964,
      "Ġtempor": 8965,
      "ĠRam": 8966,
      "Ġsensor": 8967,
      "ĠImp": 8968,
      "Ġrecording": 8969,
      "ĠPerhaps": 8970,
      "Ġsoph": 8971,
      "orters": 8972,
      "Ġearliest": 8973,
      "Ġgravity": 8974,
      "ipher": 8975,
      "Ġheritage": 8976,
      "bered": 8977,
      "Ġloop": 8978,
      "Ġsees": 8979,
      "ï¼Į": 8980,
      "Ġinstant": 8981,
      "Ġcoat": 8982,
      "Ġhotel": 8983,
      "Ġpill": 8984,
      "asses": 8985,
      "ĠAngeles": 8986,
      "Ġ{\\": 8987,
      "Ġproductivity": 8988,
      "Ġembed": 8989,
      "Ġafraid": 8990,
      "eut": 8991,
      "Ġspray": 8992,
      "Ġoccurring": 8993,
      "aret": 8994,
      "Ġintegral": 8995,
      "ĠMP": 8996,
      "Ġrhyth": 8997,
      "Ġpoem": 8998,
      "ashes": 8999,
      "rand": 9000,
      "ĠCub": 9001,
      "Ġconsciousness": 9002,
      "Ġdisabilities": 9003,
      "Ġemerging": 9004,
      "Ġdil": 9005,
      "isted": 9006,
      "Ġhandling": 9007,
      "ĠPur": 9008,
      "ĠMid": 9009,
      "Ġliterally": 9010,
      "Ġpenal": 9011,
      "ĠLevel": 9012,
      "Ġcattle": 9013,
      "ĠIdent": 9014,
      "agnetic": 9015,
      "HA": 9016,
      "Ġrobot": 9017,
      "Ġhypothesis": 9018,
      "Ġargued": 9019,
      "Ġparameter": 9020,
      "Ġemployee": 9021,
      "Ġgrounds": 9022,
      "ogenic": 9023,
      "Ġmodule": 9024,
      "Ġspots": 9025,
      "Ġnarrative": 9026,
      "ĠPhilipp": 9027,
      "Ġfocusing": 9028,
      "Ġsatisfact": 9029,
      "Ġdramatic": 9030,
      "Ġrom": 9031,
      "Ġintention": 9032,
      "Ġversus": 9033,
      "Ġmaxim": 9034,
      "Ġchocolate": 9035,
      "}{\\": 9036,
      "Ġsaving": 9037,
      "Ġadverse": 9038,
      "ĠJim": 9039,
      "Ġopinions": 9040,
      "ĠWhether": 9041,
      "Ġafternoon": 9042,
      "Ġrepresentative": 9043,
      "Ġanalyze": 9044,
      "Ġremarkable": 9045,
      "Sec": 9046,
      "Ġlifetime": 9047,
      "py": 9048,
      "Ġforming": 9049,
      "achuset": 9050,
      "Ġ2022": 9051,
      "Ġrepresenting": 9052,
      "ifted": 9053,
      "achusetts": 9054,
      ":||": 9055,
      "ati": 9056,
      "Ġchamp": 9057,
      "iously": 9058,
      "ĠCapt": 9059,
      "pre": 9060,
      "Ġoldest": 9061,
      "Ġsettled": 9062,
      "Ġraising": 9063,
      "ĠDutch": 9064,
      "hemistry": 9065,
      "ieval": 9066,
      "Ġsensitivity": 9067,
      "Ġphysically": 9068,
      "Ġsensors": 9069,
      "Ġpilot": 9070,
      "::": 9071,
      "Ġduration": 9072,
      "oli": 9073,
      "wan": 9074,
      "oked": 9075,
      "Ġ95": 9076,
      "ĠTheory": 9077,
      "Ġsavings": 9078,
      "ĠIndeed": 9079,
      "Ġcreatures": 9080,
      "dy": 9081,
      "ĠCost": 9082,
      "Ġpanels": 9083,
      "Ġoutdoor": 9084,
      "Ġ73": 9085,
      "Ġmerch": 9086,
      "Ġsymbols": 9087,
      "case": 9088,
      "Ġprivile": 9089,
      "zheimer": 9090,
      "ĠBooks": 9091,
      "Ġweigh": 9092,
      "Ġ_": 9093,
      "2009": 9094,
      "ĠVan": 9095,
      "ritten": 9096,
      "Ġhormone": 9097,
      "Ġengaging": 9098,
      "Ġcomplications": 9099,
      "Ġpartial": 9100,
      "Ġscr": 9101,
      "Ġcord": 9102,
      "Oh": 9103,
      "Ġanalog": 9104,
      "Ġhumanity": 9105,
      "regation": 9106,
      "âĦ": 9107,
      "Ġ1991": 9108,
      "ĠSecretary": 9109,
      "Ġstones": 9110,
      "Ġgathered": 9111,
      "ĠRest": 9112,
      "bean": 9113,
      "Ġensuring": 9114,
      "Ġpace": 9115,
      "ifice": 9116,
      "power": 9117,
      "Ġshoes": 9118,
      "Ġfilms": 9119,
      "Ġburied": 9120,
      "Ġengagement": 9121,
      "dimensional": 9122,
      "ications": 9123,
      "aka": 9124,
      "Ġprayer": 9125,
      "oz": 9126,
      "Ġguarantee": 9127,
      "Ġstrategic": 9128,
      "nom": 9129,
      "icking": 9130,
      "arming": 9131,
      "uther": 9132,
      "Ġunn": 9133,
      "aven": 9134,
      "ĠArea": 9135,
      "Ġrespiratory": 9136,
      "Ġengines": 9137,
      "Ġsunlight": 9138,
      "Ġwidth": 9139,
      "Ġmurder": 9140,
      "onomic": 9141,
      "Ġconverted": 9142,
      "aws": 9143,
      "Ġwheat": 9144,
      "View": 9145,
      "usive": 9146,
      "Ġ1000": 9147,
      "Ġpestic": 9148,
      "sin": 9149,
      "ographical": 9150,
      "ioxid": 9151,
      "ĠCorpor": 9152,
      "Ġcelebrate": 9153,
      "Ġviolent": 9154,
      "otherapy": 9155,
      "Ġremoving": 9156,
      "ools": 9157,
      "ĠPennsylvania": 9158,
      "ĠLincoln": 9159,
      "Click": 9160,
      "Ġchannels": 9161,
      "ĠGM": 9162,
      "achel": 9163,
      "Ġboundaries": 9164,
      "iano": 9165,
      "Ġplug": 9166,
      "Ġjudgment": 9167,
      "Ġsomewhere": 9168,
      "ĠIslamic": 9169,
      "Ġion": 9170,
      "Ġscenario": 9171,
      "run": 9172,
      "Ġequality": 9173,
      "Ġvisiting": 9174,
      "Google": 9175,
      "ĠSurvey": 9176,
      "fty": 9177,
      "Ġpowder": 9178,
      "lected": 9179,
      "mond": 9180,
      "ĠON": 9181,
      "inois": 9182,
      "ĠMess": 9183,
      "Ġexhibit": 9184,
      "iop": 9185,
      "Ġindigenous": 9186,
      "aze": 9187,
      "Using": 9188,
      "Ġwithdraw": 9189,
      "ĠBern": 9190,
      "Ġgases": 9191,
      "Ġfought": 9192,
      "Ġears": 9193,
      "Ġwhenever": 9194,
      "Ġcrack": 9195,
      "ĠPlace": 9196,
      "Ġconcentrations": 9197,
      "non": 9198,
      "ois": 9199,
      "PR": 9200,
      "Use": 9201,
      "Ġenormous": 9202,
      "Ġtact": 9203,
      "Ġbegun": 9204,
      "Ġcable": 9205,
      "Ġfaculty": 9206,
      "300": 9207,
      "Ġsurprised": 9208,
      "iro": 9209,
      "!)": 9210,
      "Ġperceived": 9211,
      "Ġfee": 9212,
      "Ġhung": 9213,
      "ricts": 9214,
      "ĠWikipedia": 9215,
      "oices": 9216,
      "Ġalgorithms": 9217,
      ".).": 9218,
      "ĠNeed": 9219,
      "SE": 9220,
      "Ġsending": 9221,
      "imm": 9222,
      "aylor": 9223,
      "Ġritual": 9224,
      "Ġpeoples": 9225,
      "Ġappreciate": 9226,
      "Ġoverl": 9227,
      "rium": 9228,
      "Ġdies": 9229,
      ")||": 9230,
      "Ġpersonnel": 9231,
      "Ġtargeted": 9232,
      "Ġ`": 9233,
      "Ġboundary": 9234,
      "TA": 9235,
      "Ġsafely": 9236,
      "lude": 9237,
      "sor": 9238,
      "Ġwinning": 9239,
      "ouds": 9240,
      "Ġdifferently": 9241,
      "Ġbatteries": 9242,
      "pack": 9243,
      "Ġpasses": 9244,
      "Ġdense": 9245,
      "Ġpert": 9246,
      "ĠSaint": 9247,
      "Ġfootball": 9248,
      "Ġelectrons": 9249,
      "Ġreserved": 9250,
      "Ġtransmit": 9251,
      "ÙĦ": 9252,
      "Ġblank": 9253,
      "Ġtransformation": 9254,
      "Ġmothers": 9255,
      "ĠFair": 9256,
      "ĠNumber": 9257,
      "Ġliteracy": 9258,
      "vy": 9259,
      "redit": 9260,
      "Ġdisability": 9261,
      "Ġbene": 9262,
      "Ġemotion": 9263,
      "Ġpartnership": 9264,
      "BI": 9265,
      "ĠBuilding": 9266,
      "ĠObs": 9267,
      "Ġstruck": 9268,
      "Ġcontents": 9269,
      "icked": 9270,
      "cdot": 9271,
      "his": 9272,
      "Ð°": 9273,
      "-\\": 9274,
[...]
